1111111111010000
10010
10100100
1111111010111000
1111111101011011
1111111111110100
1111111110101001
1111111011011100
1111111101100110
100001010
1101010
10001111
100000
11000101
1111111011001000
1101111
100000011
1111111100001110
101011
1111111100101000
1111111101100110
1111111010110011
1111111011101000
11111001
101000100
10111101
101011001
1111111100100000
1111111100110011
1111111110011100
11100111
1111111101000001
1111101111010010
1111110010100000
1111110010010001
1111100100110100
1111100110001111
1111010111101001
111111111
1111100100011000
1111100010001010
1111011111000101
110011010100
1100001011
1111101100100111
1111100111010010
10000111
1111101011000000
1111011000011001
1111100110100001
1111011111000010
1111100111011001
11101001
100000111
1111111111010011
11110010
1111111101111000
1111111011000111
111100
1111100101101010
1111011101110101
1111101001000010
101110100100
101110000000
10100000010
10101110001
1111111100100000
1111101010001100
1111101001100100
1111110111011111
11011000
101101001000
1111000001
1111
1111110001010010
1111110011001010
1111111100011110
10011100110
10111001010
11010110
1111101110111000
1111100100000001
100101110
1111111101100100
1111111101000101
101011001
100000101101
1111011111110100
1111100100010000
1111110110000111
1111110110110010
10010110011
11101100
11001111
10000110011
1111111111000011
1111010011110111
1111011000011011
1111010111010000
1111111110000000
1111111101100011
1111101100110000
1111110100100111
1010010010
1111110001110010
1111100110101110
101111000010
1000101110
1111010110011011
1111111101100000
1111011110001101
1011000
1111111110010001
1001100
1110000010
1010010101
1111101001011101
1111011100010000
1111100110010001
1111100000110100
1111100110001111
1111101101100101
110111
1111110011010000
10101
1111111011001100
10110001110
1010101011
10101101110
10111010010
1000110011
1011100110
11101101000
1111111000
110011100010
1110111001
1110001000
1111111101001010
1111101101100010
1111100111100011
1001111
100000110
1000000010
1111111101001001
1111100011010001
1111100011110110
1111101101001000
1100000010
1111110011100100
1111101011110101
1111110000101001
1111101110010000
1110001111
111111
1000110011
110100010
1111110110100010
11111101
10000111000
111110100
10011110110
1111111011010010
10100111100
1111101011110001
10110011010
10000011
1111101011000000
1111111010000000
1111111101001100
10011101100
11101001011
1111101001011101
1110111010111100
110000010
1111111001001111
1111111111011010
100101
1111101111110010
100001001
110010111
1110001000
11001100
10100110111
11100100011
10111000001
11011001010
111000110
11101111
1100100
1111110010111101
1111111110101101
1111111100101001
10001110111
1111110111001110
1111111010111101
1111101110100111
100010000
1111110001000101
1111111110010100
1111101001011011
1111011011001001
1101111101
101111
10010010001
1100100001
100011010010
10110010010
10010001011
100110010101
101011001111
10011101000
100000011110
11100000011
111101001
1111110100100000
1111110110110011
1111110110011111
1000001100
11100010
1111110010001111
1111110110001100
1111010100001001
111011011
1111100011101000
1111100010101111
1111101000101100
11011011111
1111110001010011
1111110101101011
100000000100
111011111
100000110110
110000101110
110111010110
101010111000
1010001111101
111001010110
101000000010
11111011010
10110001110
1100011111
101111101
1111110010011000
110001111
1111110001101000
1111110110000110
1111101100100110
1111101011110111
1111110111000011
1111101010001001
10111110011
1111101100001001
1111110101110000
1111011101101001
100000111101
10110100100
11001110111
100000110100
10000101000
1010000000000
1001110011101
1001101110011
110100101010
111110011110
100100111100
10100001111
1011100110
10010111110
1110111000
1111110010001110
101110111
1100111011
1011111100
1111111100011111
0
1111100111000011
1111110110110101
1111001101001101
1100010001
1111111011
1111110001010010
1111101000011101
1111111001100001
10100010010
111000010000
10100111011
100010000010
111111010010
1001111110100
11110010111
100001100100
1010101101
111111110
1111110111011000
1111110100101100
101100110
1111110010110011
1111111110010011
11010110101
1111111111111001
10011100010
1111111101111111
1111100110011010
1111100011101100
1111010101111011
1111101100011111
1111101101010001
101010101111
1111111011100011
1111001100010100
10111101011
1111111000101010
1011101101
11111100111
11111100010
1111111011110100
1101111100
11100000011
1111111000010010
1111010110100101
1111101010100000
1111010000010100
1111011011011111
1111101100111000
1011010011
1111110001011110
10000010000
101010110
100000101
1111110000001110
1111111101101000
1111110101010100
1111011011111010
1111110101011000
10100101101
100100001011
1111111101010001
1111110110011110
101000000
1111111011001111
1111111000010010
110100001
1111111110000100
1111100110101010
1111100111110111
1111011001101011
1111011001010100
1111010000111011
1111010111110000
1111100100001111
1111010111011010
1111011101000111
1111110100010001
1111111110000110
10110111
1111101110111101
10100010
1101001011
1010011010
1100111010
10110011000
10001001001
1111101001101100
1111111110101011
1111101101001110
1111101011001101
1111101111100101
1111010110011110
1110111101100111
1111010110100100
1111101101100010
1111110111110010
1111110101010011
1111110011100110
1111101100100110
1111011111101110
1111011100010001
1111110000101000
10101001
111100001
1111111100100011
1000011110
110011000
1111110001000011
100000110110
1111110111
1011110110
1111111010001000
10100010101
100110111011
1111110010110000
1111111000011110
1111101000001011
1111101101000110
1111010110111101
1110111111001100
1111001100000011
1111011001101111
1111000101
1011100000
11001001011
1100001111
1111111000001100
1111110001001100
1111101100010001
1111111110010110
10101111111
10111111110
11110000111
1111111011110101
1111111100011000
1111111110101010
1110111010
1101101000
100101010110
100011110111
11010001000
1000001000101
11000
101101010
1111101110101111
1111101010011001
1111110110010110
1111110010001100
1110111000010111
1111101011011010
110100000
10101111000
110000000111
101001111101
100111000100
110000101110
111111011
11000010001
10001011000
1001110101
1010111011
1111100011010110
1111101100111011
1111110000100100
1111101100000010
101010010001
100000011001
10100001111
1111101110010111
10101100111
1111010001111011
1111110100011110
100000100
100100011
1100
1111100011101000
1111100010010011
1111111000001000
1001011010
100111110101
11000110110
111000011001
1001011111110
1000101110111
100101100110
100101010000
100010101010
10100101100
1001110100
1111100100101001
1111101010111100
100110111
1111101011000001
10000101110
1100111111
10010110101
11101110100
100011101011
1111111110110001
1111010101010001
10010100
1111101010000011
1011111011
1111000001111011
1111110010110011
1111101101000000
111010
1111111011001110
111000010
10001101010
101010001111
100110010010
110000100100
110011010111
11100000111
10000001011
0
1111110111011101
1111111110010110
1111111010001101
1001101101
1011000111
1111111011000011
110011110000
101100000010
1001001100110
100011111011
1111011010011010
1101001101
1111111001001010
100011100
1111100100010110
1111101010101010
1111100101111000
1111101111000000
1111101011001100
1111010010001010
1111011111100010
1111101011101011
1111110000111010
111110
1111111100101010
1111111100101010
1111110001011011
1111111101101111
1111110110010010
1111111110101010
11001001
100100010
101011101
1111110111001110
11110000100
11111100110
110010111111
11010100010
10000111101
100100010
1111011000010010
1001011111
1111100000011011
1111111001100000
1111110001101110
1111110001100001
1111111001110010
1111101011010000
1111100011011111
1111100110110000
100010000
1111101101001100
1111110001010001
1111110001100000
100000
1111000000
1111111110110100
1100011010
100010011111
11000111101
101001110111
11110011110
11111010
11001101101
1001010101001
10001110011
1100010110
101001011
1111011101001010
1110110110
1111011011011010
1111110101100011
1111111011010010
1111111110100000
1111110111100111
1111110100111011
1111101000111000
1111011101110011
1111101000000001
1111100011001101
1111100001100000
10110001
1011100111
101111001001
11000001001
100011111001
100101101101
101011011001
1100101011
1111111011110010
110000110100
111011110001
1000000101000
11001100100
1111110001001100
10100101
10111000101
100100001
1111101101101110
1110100010
10101101000
100101101
1111110011010101
1111101110001001
1111101100111010
1111101111011010
1111100010000101
1111101100100010
1111111111010010
10100011111
11100010001
10110100100
10100101100
11000111110
11110100000
1100100001
11101101101
110001011001
100101001101
111111100001
100000001111
1111100010001011
1111110110101111
1000000111
1000000011
10100111011
11010110
100010101101
101100011010
1010010101
100110011
1111111111110100
10101000
1111111110101001
1111101110110011
1111111000100111
111011110
1011110011
1111110011000110
1111001100
10001110111
1001110110
11100000111
11011101100
101001101101
110001000010
100010011111
1000111000010
1111111110101111
1111101011111110
1111110101101110
11101001
11010
1111100001101110
1111110101001111
1111101111110010
10011000110
1001000010
1111110111011101
1111110001110010
1111110100000010
1111011001100001
1111100110011111
101110110
1010100010
1111111011110111
1111111101100101
11110111010
101001111
1111100100100100
111100100011
111111011001
1011010010001
1000100011111
1000000000000
111010010010
1000
100110110011
1111111101001001
100011111
11000111
11111011100
1111110101001011
11100100000
10000001110
1000110101010
110101110110
100010
10001010100
11111010111
11100110001
1011010111
1111111110111011
101100001
100111000011
100111101001
101000001101
1111111111111111
1001010011101
101100011001
10101001110
1101000001
11010011100
100101010010
100101101110
100001010101
1111110
1110000
1111111011011101
1111111110000000
100111100110
1111111111101101
1001000011
10101001110
11101000000
1010000100101
1011111010110
1100000010101
1000101110011
110000110000
11100100001
101000011
110010111111
101110011100
1000011000001
1000100110111
101011011110
1111111111111111
111101000000
100101000011
101101110011
100101000010
1111111111100001
10001110
1111111101000011
11000
1111111100101111
11010011
1111110101010111
100100110000
10110101101
110110001111
110010101000
1001001111100
1001110111010
1000110000101
110111111111
1111100100000001
1111100101010110
101110110000
10110100111
101000000
100001010100
110010010110
110111011000
101110110111
1111110011001101
1111100011011001
1111011010100111
1011111011
100000
100000110
1111111110001101
11100
1111111011000000
11101010
1011110
100110001
10110110100
100010101101
101001000000
100000011111
100010101000
1111111101111001
10011001100
100000111001
11000110001
1111111001001000
1110111001
1110100110
10101001110
10011101001
10110001011
11101010111
1111110100110001
1111100100010000
10101011
11001101
101000000
1111111111011100
1111111011111000
