1111111101011011
1111111111110001
100100
10001
10100100
100000000
1111111100011011
10000011
1111111111101010
1111111100010010
100010110
101011111
1101100100
1010111110
1111111100010100
100011110
1111111011101100
100101010
11101011
10010
1111111100101000
1111111011011001
1111111011100011
1111111100101011
1111110
101001
1111111100101010
1111111100100011
1111111101110100
11000110
1111111100011100
1101111
10000000101
11001101001
101100001011
101101100101
101111111000
1010110001010
1000001010101
1111111110001000
1111111100111111
1111101010011111
1111110100000010
111100111101
101111001111
111010001001
1101100011100
1100111000000
1001010101011
1000100000010
100111000101
100000110001
10111001
1100001
1111111111110110
11110001
1111111101100110
11110111
1010000101
1111110000000110
1111111100001111
1000001000101
111001111110
1110100101001
1010100110101
1110000100111
10000101010000
1111011011001
10001111110111
1100000110111
1000101100000
1010010110001
111110100000
110010111101
100101101011
101100000011
1101011011
1101110111110
101101101100
101110100001
110110001111
1111111111010100
10010111
1111111110010001
1101100
10100101
101001010
1101101111
1111110101101100
1111111101010001
11111001011
10000100100
1100101100
1000100110000
1010010011
1100100
10110010111
101001000010
1111110000000101
1111111100111111
1010100101
1000101001
100010011010
110100000001
1101111010
1111110010100100
10011111
101100011
1100010100
1111110010001110
1111100010101000
1111111111001010
1010
1111111001110111
1111111010111011
0
100110110100
10011011111
1111110001011110
1111100000000100
1111110011001000
1111101110100001
1111101111110100
1111011010101000
1111101001011111
1111101100100110
1111110011011010
100100110
1101010011
10100110000
111111110
11110110000
100111110000
101001011
1111110000
11110000011
1111111001010011
1111101110111010
1111000111100001
101010111
101000101
1111111111000010
111001011101
1111101011110100
10010011101
1100011
1110100
1111110101000001
1111010010100111
1111011111010000
1111011110000000
1111000110000101
1111100100100001
1111100110101100
1111110101011100
1001111110
10010110
1111111101010100
100000111
10000110000
10101001010
11110101101
11110001011
10101111110
11110100000
11011001
1111110010001101
10100110
10001101
110110100
1111101110000000
110001101
1111100010
1111111011000001
10110100110
1111101110011100
1111011011111011
1111100010110101
1111010110011000
1111100001100010
1111100100001100
1111010110011010
1111101010011110
10110110
1111101111011010
1111101010000100
11010000
10010110001
1001010
1111111110111011
1111111011011100
11
1001010010
11011111100
1111101001000001
1111011001
1111111100111001
110000100
1111100010110111
1111111010110101
1111101111011100
1111011110010101
1111110101101001
1111111000001101
1111100000001101
1111100110001110
1111110101100100
1111111100110101
1111011101000011
1111101011001100
111001100
10010100
1111101011100111
1111110101100011
1111111110110101
110001010
1111111001000010
1000110101
10101110000
1111111010111010
100010101101
1001101001
1111101110000101
1011011100
10000100101
11000001110
1111010010011100
1111101100110000
1111011110001000
1111011111011010
1111111111100101
1111111111001101
1111101110000100
100101
1111110101100101
1111101110100100
1111100001000011
1111100101010111
1111100100010101
1111111000000010
1111101111100001
110100
1111011100110111
1111011101110100
1111110111101011
11010110
1111101101000111
1010101111
1111110010010010
1111111001010101
1111010100100000
1111011110001100
1000001
1111111001100011
1111110110110100
11111011110
10100011101
1111011101111101
1111100001111000
1001110110
1111111101101101
110110011
1111111001110101
1111100011010001
1111101010100101
1111011110111011
1111111010111010
10010111
1111110110010110
1111110101001000
1111100000110011
1111011100111110
1111110111000100
1111111010101100
1111101010101100
1111001110001010
1111001011100101
1111100001000110
1111010011100101
1111010011110111
1111111001111101
110100110
1111011111001111
11111100101
1100111
1111111110001100
10011010110
11101101110
1010111100
10101100100
100011011
1111101011011111
1111011011100011
1111011011101110
1111111001011101
100110011
1111111000001100
1111101111
1111110000101001
1111000111000110
1111111000111111
10010001
1111110111001111
1111110000010101
1111001101110100
10000011
1010011100
100010011
100101110
11101100101
1111100000000100
1010
1111110100111100
1111111001101100
1010111
10001101000
110110100
10010010001
1111110101010100
1111011000010000
1111001000101000
1111000110111101
1111100010111101
1111110011001101
1111111111110101
1111100001111100
1111100010110000
1111111000001010
1110010
11111101010
10011101101
1110100000
1111111011011011
101010101
1111010001000101
10100101010
1111111011011100
1111011011101100
1111100100100110
1111110000101011
1111110100001111
1111111100011100
100100000
1111100100000100
1111110111111011
1110010101
1111101010111001
1111100011111101
1110111011100010
1110111110101100
1111101100110000
1111111100101000
1111111011100001
1111101110000100
1111110000000111
1111101100000101
111001100
100000110000
10001101110
1011101101
10010011101
1111111010000001
1111000011011011
10110111
1011101
1111100100111000
1111111101101001
1111100101010110
1111011011101100
1111111100001101
1101010
1111100111110000
1111111010011101
11111011
1111111011101101
1111101010111010
1111110111111100
10000101011
10001011011
10011110100
1100001
1111100111010001
1111100110010100
1111111011010110
1111111100110000
1111110010110111
10101100000
11000011011
100000011010
1111001110111111
1111010000010100
10001100110
100101000
1111011110100000
1111111111110001
1111100100111100
11111101
1111111101100011
1101000
1111111111101111
1001001
1110101010
1010001
110101010
100011111110
11110110010
1100011100
110001011
1111111101000011
1111011000000010
1111101001011000
1111100100000101
1111110010110010
1111100000000110
10111001000
1001101111
1111111110000101
1111101100000111
1111101110
1000000101
111111
1111100001010000
10010101110
1111110011110010
1111111010001100
1111111010000001
1111111110010001
1111110111100101
111001011
1101011000
11110000000
100111000100
100100111111
110111111100
1100101110
1111111010001000
1111101100011011
1111101001010000
1111111000010000
101001
1111101100100001
101010010
1010111010
1111111011110011
101100011
1010111000
1000101010
11011101000
10100111
10001100101
1101110000
1111011000010111
110001000
1111111101110010
1111110111000011
10011110100
11101111010
100001001001
100111100111
101011100011
1111001010
101010111011
11010000110
1111111100101000
1111110000010010
1111100001100000
1111110111000101
100110011
1111110001000101
1111111010000000
1100010001
10001001000
11000000111
11100001100
1110111101
11101010
1111010
10110011
1000001000
1111001101111010
1111101001111001
101000001
1011011000
111000001
11100100100
11010010001
100101001011
111000010101
11001111000
11101011000
100001101100
11101110
1111101101101101
1111100100101000
1111100111100000
1111111010101010
1010010000
1011111010
1111111111010011
101010000
1111110100100101
1111110111101010
1111110101000000
1111110101111110
1111110000111111
1111101111111000
1111111001110100
1111111011100110
110101111
1111111001110111
1111111110010010
1110101000
11010011000
10000000001
10010111000
11100001011
100011001001
100101110010
10100000100
11010001
1111101101101100
1111101100001101
1111111000111111
1111111111010001
11000010011
111110000
10111110110
10111111110
11101110
1111101110001101
1111101101111000
1001100000
10010001000
1111110010100101
1111110100100001
1111111010110110
1001011010
1111100011010100
1111111011100110
100110111
101101001
10101000011
101000011
10011110000
10000110111
10001010100
100011001
1111110111010100
1111110001001100
100101100
100000111
10001010100
11001101110
11000001100
11000000001
10111110101
1000100010
10100100000
10011000110
10000001101
101000000
1111101110000101
1111101010001010
1111111010000010
11000101101
1111110001100010
1111111111110001
1111110111011100
10000001101
11000010110
1110010111
11000000111
11010010111
1000010000
100111000
1111111110000001
1111111110100010
1111111011010100
10101001100
1111000010
101011000110
1111110111
11011001110
100000100001
10100001101
10110010101
101101011000
110011001
1101111000
10100010101
1111011100011100
1111110111000111
111101010
1001101010
1111111001111100
110100010
1111110111110010
1000110110
1100011010
11111
110000
10010110101
1011101010
1111111001101010
1111110011101011
1111111101000001
111101011
1001001011
100000101000
100001010011
110101000110
100100110011
10111001101
110001010110
11111101010
111110
10000011010
1111111000
1011100000
110100001
11010110000
1111111100011010
101010100
110101101
1010111
11111111
10101101
1111100001000010
1111101001111011
1111111110110111
1111111001000110
1010110111
1111111110001001
1111110010110001
1111101111001000
1111111111010010
10110110101
101011011011
10101110
1111101010001101
1111101101110010
10001110
1101000100
111101100
1111111111000101
1111111111110011
1111110001111011
10000001011
10111111
1111110101101011
1111101111100110
1111100110101110
1111101010100101
1111100001101011
1111010111001010
1111010000011001
1111110011001011
1111110100000110
1111101101010101
1111110001001011
1111110000011010
1111100010010101
1111100111100001
1111011011100111
1111101000101110
1111001101101001
1111000111110111
1111000011110010
1111010001110101
1111101100000110
1111110010
11111001
1111111011111110
101001111
1111110010001010
1111101000101001
1111111110100100
1111100101001101
1111010000000010
1111011110000001
1111100111011100
1111101111001100
1111011011110101
1111000001101011
1110111001101011
1110100111000001
1110110101100000
1110101110100100
1111001000110001
1111001110001101
1111110110001000
1111011101011010
1111110100011001
1111000001010100
1111010000011001
1110111111010100
1111100111001010
101111011110
100111100111
100110011
1111111110110100
1111111110001001
1111111001010111
1110101111
1111011110011000
1111011110001011
1111001011101010
1111010101000111
1110111000100100
1110010110001011
1110100000000000
1111100011010010
1111100101011110
1111001111110010
1110011011110010
1110100100101110
1110101010011001
1111011011110001
1111001000011000
1110101011010000
1111010001001011
1111011100001000
1111001011111111
1111111110110001
111111100
100010000
100110110
1111111010110101
100110010
101111
100100011
1111110010000011
1111100000000100
1111100000101011
1111010001101011
1111010001011110
1111001000000011
1110111101000000
1111001000110000
1111100001111000
1110000100000111
1101110010100100
1101111111110100
1110001000110000
1101111110111111
1110011100001001
1110010010001110
1110011010011011
1101110011010101
1110010001110101
1110101110110100
1111001001110000
1111111010110111
100011100
100100
1011111
1101111
11001010
1111111100010000
1101110
1010011
1111111101111111
1111011110110000
1111100110111011
1111011101000001
1111010100000000
1111101100110001
1111011000010110
1110111110110011
1111001001110011
1110110101101110
1111010111111010
1111001000001010
1111010101100010
1111010111100000
1111000110010000
1111001100011111
1111010111111001
1111101100110000
1010111110
100101100
100001001
1111111100111100
1111111010111100
