1111111110000111
11110010
1111111010110011
100011010
1111111101100000
100101010
101011100
100001111
101001
1111111100100000
11100
1111111111011000
1101101011
10100111001
1111111111011010
1111111100000110
1111111100001001
1111111111110100
101010001
1111111101110101
11000111
11100101
1101100
1111111101011100
1111111011100000
1111111101110010
100011010
111001
1111111110000110
100110010
100110110
1111111101100000
11000010001
11001101010
11001110
100001111111
100000110101
111001011001
1000110100
1111100011
10001010110
110101000110
101100101110
100110011000
110000010000
101001111011
1010001100110
110101111111
11011111011
11010010110
11000000110
1000010100
100001101
1111111101101111
1111111111000010
1111111111001111
10101101
1111111110010100
1001010000
11001011100
110010100001
110100101010
111010001110
1010111101101
110000011100
1111001110010000
1111000101000110
1111111111011111
1111101011100111
1111110110001100
111001000110
100011001100
100110110110
1001101000
1000100101
1101100011
1101010010
1111011111010011
111001111
1010110111
1111010110100111
111011000
1111111110110101
1111111101000100
1111111101010001
0
100111011
1010101101
11110101010
10110110001
1111110100010011
10100010010
1110110101
1111100000101000
1111110001000001
10101100
11000111001
100001101001
1000101100000
101010111101
100001110110
11001111010
10010100100
1010000011
101100010
100010101
11110
1010010
1011011001
10111111
1010101111
10101111
1111111100101001
101010001
1111100111001001
10010
1111101111111010
1111101100110000
1111111001110011
1111110111011100
1111010011010110
1111010111001001
1111100011111100
1111110100001001
1111110011111000
10000001100
100111001
11111010111
11100010111
1001111000
10101111
10001100
1111110011010110
1111110010
101110100110
100110000101
11000110011
1111001101
100101101010
1001101101
1111111111011010
100001011
1111010111011011
1111111100011110
1111111011000111
1111111011111011
1111110110010000
110111
1111111111000011
1111111011000010
1011011
1111011101
101110001
1111111111100000
1100011
1111110001110001
1111101110111101
1111111100101010
1111110101000010
111000110
1000100110
111000001
11100000011
101000100110
101000000100
1110111001
11101101010
111111001
1101000
1111110100011011
11001110011
1111100011010111
1111101000100011
10100101111
1000101000
10110111100
10101101001
1111111110011110
1110111111
10001110011
1010001101
11011000000
11111100110
11101101001
10101010000
1100000011
10101001100
1000100111
100111111
11101011001
11101010010
100000010011
101101011000
10100100111
100000010011
1011111000
100100100
1111100011110110
10010101110
1
110001100
11001000
1111111101110101
1111111011101011
1101000
1110010010
11000010010
1111110101110100
1100101101
10000100000
11011100111
100110001010
100011111100
1110010100
10101001100
1111111000011010
1111100111010101
1001100110
1101010011
110011010011
111000100101
100010000101
11101111101
10000111111
11110101111
1111100011000000
110000000011
1010010001
101110011100
110001111
1111101011100010
1111111111011010
10101001010
10000001010
10001110
110110100
111110011
1000101101
10111010111
11011000001
101111011110
111010000
1010011001
1111101110101110
1111111111000001
1111100011
110010101101
100010110110
101111100110
11111101011
11001010010
1010110101
1101
100100011110
11001101100
1111110011111011
1111011011101010
1111110110101001
1010001111
11000110001
100110011111
10001111001
101101001100
10111111100
100111001
1111111001011100
1111011001
101111001001
100011001001
1010101101
1001001100
1111111101111100
1111110111000111
1111111111111010
11101010011
101011001101
11010010110
10100011101
11010100011
101010100000
1111111101011011
10001011101
110010111011
1111110100000100
1111101111101010
1111101001100100
10010101101
10010001101
11101110111
100001100111
1000011010
100011111
1001101101
11011010111
110001111000
110111011111
1110010010
1111100111000111
1111110100100001
1001110110
1011110111
10010011100
1111111110111011
11111110010
10010011110
1100100111
100010010
10100011000
101001
100001110011
101101101100
1100
11010110100
10110001
1000110010101
110000000100
1011110110
10100010110
100000010
100000010010
10111101101
110101001111
1000000011000
1010111000011
1110000010
111110100
101001110
110110011
10001011100
1110100110
10111001100
11010000010
1001100101
1111101011111010
111000100011
10001001011
1111111011100000
10101100110
110001001000
11101100110
11000101111
11011101010
1000101000101
11011000101
1110010000
10010101011
1001011101
10010011000
11001001001
100010100001
110001110100
101100111101
1111101110
1111111011010000
1001100001
11000000010
1110011
1111110110000110
1111111101111100
1001101100
1111100110000010
1111010101110110
1111100101110100
1111101111011010
1111111110001100
1001101110
101010110001
101110100
11101101000
1000010001
1111111111010011
1111111110101001
11110010
1101011001
1010010011
100101101
10101000
101111001
1011010100
1111000100
1111110111
101110010
11111101
1111110110010010
1111101110000111
1111111011010111
1111100111011100
1111110010110000
1111010000100100
1111111000100100
1111010101010110
1111111001010001
1001101000
110011010110
11001001110
1111100011111001
1111111110011010
1111101101101011
1111101100000100
1111011000100111
1111110100010100
110110011
1111111100101011
100110000
1111110110010101
100011101
110101110
1111111110010010
10101100
10101011000
10010000000
1111111110101011
1111110100011101
10000011000
1111100011110011
1010010011
1111110100100110
1111111101000111
1111011011100100
1111001101101010
1010100001
100000010001
1111110111011100
1111011110001011
10000110101
1111101011110101
1111100110110101
1111100001001110
1111100010010100
1111101001111010
1111100110011111
1111101111000101
11101000
1111111001111011
1111111110111011
1111111010101011
1111100010011000
1111110100001011
1001000101
1111101101011111
1111111000011110
1001011
1111111111110011
11101101001
11001111110
10000011111
10011011100
1111010010011110
1111111010010000
1111110010110111
1111110010001101
1101101010
10111111101
1111101111011001
1111100011011110
1111100100000001
1111101001111101
1111100101001100
1111100111101001
1111110110111011
1011100110
111011001
1111011000100001
1110111111111010
1111000111111100
1111010111011100
1111101111100111
1111100010001111
1111101101010000
1111101010101001
1111101100101010
1111110111110110
1111101100001100
111110001
11100011
1011000000
11100010
1111100000
1111101011011100
11110001011
1111110100110111
1111111100111110
1111011101101010
1111101101110000
1111100101010111
1111110001001011
1111111111110101
1001001111
10111111110
1111110110001110
1111011111001100
1111010000110111
1111010001100010
1111100001000100
1111100011000001
1111110100110100
1111100011010100
1111100000110110
1111110110011001
1111100101101111
1111110011010001
101010101
11110010100
100000001110
1010000100
11010001110
1011111010
1111101111010001
1111011010000000
1111101001100111
1111101001001110
1111011101001010
1111110110111000
10100001110
11000110111
11000011110
100010010
1111110011011101
1111100100000100
1111011001011111
1111010100101101
1111100111000010
1111100101000001
1111101010001110
1111110001011001
1111100101101011
1111010111001000
1111010011111011
1111010111101001
1010101
110110001
1111011010000001
1111111011011001
100010100000
1111000111
111000010
1111110110000100
1111110000000010
1111110000000100
1111011101011011
1111110100000010
1000100010
10110101100
101000000101
100101111011
10101000
1111110101101011
1111100101100011
1111110100010001
1111111001011010
1111110000110101
1111100001100101
1111111011001000
1111101010110111
1111010000110010
1111100110001000
1111111001000111
11010001010
1110100011011101
1111101011110101
1111111110000000
10001000001
100010110
1111101010011010
1111110110101011
1111100110010000
1111110100100111
1111110000101100
1111111101110110
1101101100
100000111000
100010000011
11110010011
10010110111
1000011110
110110100
100111000
1010011001
1111111001000001
1111111000001011
1111111010011000
1111110001111111
1111110011010101
1111110110100011
1111101000010000
1101011010
1110100101111010
10111100
1111111001000000
1111101001101000
1101001100
1111110101100100
1111110110100100
1111011100110100
1111110000001010
1111000111
1001000110
10011100011
11111110000
11011110101
100011101100
1101000100
11100001001
11110001001
101001110010
100101010010
100111011110
10010101
1110100001
1111100001001100
1111001111110100
1111000110001010
1111111100110111
11000111110
1111111100110010
10100011
1111111001010001
100000111
1111100110111011
1111100110011001
1111011110010001
1111010100110111
1111101000010101
1111110110001010
100000010
1111111101001010
1111111100110100
1001010100
111011011
1101101010
11110101011
101010011001
110010001011
111010000110
111000001011
10111011011
111011
1111101000100000
1111001011111101
1111011011101000
1111100110101011
10111110101
1111101111111010
11001011
11101101
1111111101010000
1111110110101100
1111111110010110
1111111001000101
11111
10000000101
10010001010
110101110
1111101111000010
1010110110
1111111111000111
10010100010
11011111010
100100100111
100011011001
101101010111
110111001010
11000110111
10111100010
1111111110011110
1111101111100110
1111100010001101
1111110111001100
1000111
1111111110110000
1111100111001000
1111111100100010
1111111010110100
1111111011111001
11100101001
11001000100
100001001011
101110100010
101001001110
1111111100011001
1111111010101001
11000110010
10111010000
100100000001
101001011111
101100101111
10110101010
11010001110
1101011011
11011000100
100011110101
1000110111100
11101111011
110001000001
10011011110
110100110011
111101010101
1111101110000111
1111110101001011
100100011
101000000
1111111011011110
10000110011
110110010
100001101111
1000010011011
111010110011
11011100100
1100010010001
10001101000110
1101011101101
1000111001000
100101111110
110010111100
100101011111
1111010111
11111011111
100110111010
110110010101
1110100010110
1111011010001
1000111001000
110011100100
100011101100
110000100100
1111111111011100
1111110101011001
1111111101000001
100000
1111111011111000
1111111011110010
110101010
100111101001
110100011101
111101110111
111110110011
1010011001010
101000001000
1011101000101
1110000100000
1000001001011
110001110010
111101101010
101010111000
101111010011
101101110100
1011001000001
1011010001101
1011111111101
1111001011100
1010000100011
1110111110
1111100110011010
1111111101011110
1111111011100110
110011
11001101
11011110
1111111011000011
100101011
110100
1111111111111100
11110111011
11001000111
100111100011
110100110001
101110011000
101101000111
110100000000
1000100111100
1010000001100
111101001001
101111010000
10010100000
10000011100
101001001110
110110000111
101011111010
11011110011
1111111010111001
1110000
1111111011000010
1111111110010101
11111100
