1011010
1100100
1111111100100001
1111111111110000
1111111100001011
1110111
1111111111001100
1111111111111101
1111111011100101
1111111100111000
1111111111000001
1101001
1101111110
1101110100
1001001
1111111101101000
1111111100111001
11101110
0
1111111010101110
11101100
1111111100010101
1111111100000100
100010101
11000000
1101011
1111111101110100
1111111111110111
1111111011101001
1111111101100110
1010011
1111101
1111111111111010
1001111010
1011011100
1011100010
1011011011
100011111011
11111000000
1000010110
11011100
1011100110
1111100011101101
1111100001010010
1111100101110001
1111100111011110
101011011001
11000011001
1100010011
1111100001
10100110111
1000100111
1111111011000010
100000110
1100010
1111111101010101
1111111101111101
1111111100010000
10110010
1111110110101110
1111111001011110
1110111101
101111111111
100110000101
101110001100
1111110000100100
1111011100100111
1111110110001011
1111111101011000
1111001000100011
1111010100100111
1111011001010111
1110110111000001
1111001000101111
1111011001100110
1111111110100010
1111100100000111
1111110100110000
1111111000110110
1101110011
1111111010011011
1111111110110011
10000100
100100010
11001010
100100110
1111110110000011
1111110010111111
1111101000110011
1111110110010010
1101101001
1111111011010010
1111101101100110
1111001101010001
1111010111000011
1111011000101000
1111111010011010
1111110101011010
1111101011010011
1111110100010101
1111101110000000
1111111000001111
1111101001100001
1111101110111101
1110111000111110
1011011101
1111101110001111
1111000110111001
1111100110100110
1111101100000010
10001101010
1011101
1111111110110111
1011100
1111101101111000
101000100111
11001010000
11110111011
1001101
1111011100101100
1110110000000000
1110100110111010
1110001110000101
1110001100010101
1110100011101110
1110110010011101
1110110011011111
1111000101110011
1111000010101101
1111000100101101
1110110101011111
1110110110110011
1110111110001010
1111111101100100
100110111
1110010100111001
1111000001000010
1111101101110000
1111100110110111
101001010
1111111100011011
100110011
1111100101110100
1111011100111010
1111101011100100
101010010011
10100001
11111
1101011011
1111110000101000
1111101001011011
1111100011110111
1111101100101011
1111100111111010
1111100101100110
1111100011110101
1111001110001111
1111100110110001
1110101100110010
1110110110111110
1110101101101000
1110110101010100
1111011101011011
1110110110010111
1110011111100100
1111001011000110
1111101010000110
10010111101
1111010
1111101111011001
1101000011
1000011110
1111101100100111
10000010111
11100011011
1111111111100010
1111111001111111
1111110100110110
101011110
101100110
10010011
111100100
1111111011111100
1111111110111000
111001010
10110101010
1111110001110111
1111101101001001
1111100101111001
1111110101011010
1111100111111100
1111100000110010
1111001100110001
1110110111000110
1111111110000010
111101101
10001
110110
100000001110
1010111
1111101000111001
1111101111001111
11000101001
100110011
10100110100
110110000
111011001
1111111000011100
10100010010
11110000100
1000010011
100110011
1111100101
10011011110
1111111000000001
1111110101011001
1111111110011110
1111111010110010
1111110000010010
1111110101001100
1111111101001110
1111000101001110
1111110000101000
1001100110
1111100111010000
10001101101
10010001100
1111110000111101
1111110001011010
11011101
1001100001
10101110010
11000100101
1110010011
101010
1001011010
11000110000
1101000010
10101110101
11110011010
10101101111
11101
10100
1111111110101011
10111111
1111100110111010
1111110000011010
1111110101001100
1111100011001010
1111001110111110
1110110001000000
1111101110011101
10000101011
10011110001
1111110011010001
110011100
1010110000
1011011001
10000010000
10101100101
10010000101
111011110
111111010
1010101100
11110010000
1011101010
100011011100
10100100100
1010100010
1111011101
1111111011011011
1010011000
10110111
1111110000101111
10110100101
1111111010001111
1111101010101011
1111101000000011
1111001111101101
11100001011
1011011110
1111111011011000
110000001
1100000010
1111001101
11110101110
100001001010
11101101000
10001110101
1011000001
1111111111100111
10011100000
1110110000
10101101101
100010110101
100111010111
11110100101
111
101111110
1111110111111111
1111111111101110
1111110111000100
1111101111101111
1111100100001001
1111101110110010
10111011101
1111011111110101
1111111011111010
10101010011
11100111001
1111110100100111
11101101101
10100011000
10101101110
1000011111
10001110010
1011001
1111000
11100001
1001001001
111110011
1101
100101000111
110010010101
10101001010
10101111010
1110001001
1100110101
1001011101
1111110011101011
1010101010
10010010100
1111000110111011
1111100000011111
1111011000011100
100111111
10100100111
110001111110
10000111101
1111110111110001
10101000111
1111111011110110
1000100111
1001111001
1111110010010100
1111101100100101
1111101100000100
1111100001001101
1111010111000011
1111011011001100
10100110
100111101000
101101011110
10101111000
11010101101
11101
1111101110101000
1110000101
1111101001100000
1111101000000101
1111000011000010
1111111100110110
1111110011010001
10010011011
1111100000100011
10010001011
101010010110
1111111100101111
1111110111001111
1111110111010101
101001101
1111111100111111
1111111011011110
1111100101101100
1111010010111011
1111010111110101
1111001101010011
1111100111101111
1000011010
10110000111
100001001111
11101001110
1010010000
1111110111011011
1111111001101101
11111001010
1111100101101010
1111110111001000
100010011
10101100010
1111111010111011
1111100100110101
1111110100010001
11011101001
1101111001
1111100011100111
1111100100010000
1111110101111111
1111110010111101
1111100110110000
1111100111011010
1111101110010010
1111111000101100
1111110101110110
1111100011011010
1111101001111000
1111111111110100
11001101101
11110000011
10011111100
10101110000
100110010
1111111011100010
110100
1111101000011101
1111111010
1111111101100000
1111100101011110
1111000111111011
1111101011001010
100110110
10100001
1111011110110101
1111111101101110
1111101011111111
1111110000101101
1111111011101101
1111100011011110
1111110000110100
1111101011010101
111010001
1000001010
1111101010110111
1111110011010101
1111111101111100
11011010000
1111111000111101
1011101
100011010
1111011000100101
1111110111111110
1000
101010000101
10001111111
11011010
1111011000100100
1111111001101101
1111011110010100
10111001010
1111100111011101
1111100010111101
1111110000100110
1111101101110011
1111101001000001
1111110011111110
11010001111
1111111100110000
1111110110111110
10000
1111111010011010
1101001
1111101101110011
1111110000010110
1000100000
101101011
1111110001001010
1111011110001011
1111111000010010
1111110100110101
111000011
10110
10001000011
1111101000000011
1111000010011111
1110111001000011
1111111110001001
1111111110010100
1111101111100110
10010111110
1111001011011100
1111101010010100
1111011000101010
1111111110011110
110011
1111111100011000
1111111010001100
1111111011010010
1111111110010000
1001111001
1000101111
1010000000
1100010011
1111111010110101
1111110100001001
1111111000001000
1111110010111101
1000000110
1111111100101111
1111111001010000
1111110000001010
1111011101101100
1111101110110001
1111010100000011
100101111
11001111101
1111111111101011
11111010010
1111111000000101
1111101011100101
1111011001001000
1111011011010111
1111101000100111
1111110110100111
1111110100100111
1111110101000101
1111110010001001
1111111011000000
1111111101010101
1011000000
1111110100101111
1100000
1111110010001111
1111111110100101
1011100100
1000001011
1111110111000110
111001
1111100101101001
1110111111011001
1111100101011100
10111001000
1111010111110110
1111100110010100
11100101100
100011001101
1111110100001011
101000111110
110
1111110001001100
1111111000010100
1111110001000101
1111101110111110
1111010001010110
1111010111000010
1111100110100110
1111011111011101
1010011000
1111111111100101
101111
1111110101111110
1111110011110101
1110100100
1111111111101010
101100011
1111111101010111
1111101111000110
1111110101111100
1101000
1111100110100011
1111011111011111
100110010
1111111011010001
10001000
10110011010
10001111100
1111110101001101
1111110000101110
10111100010
1111100000001100
1111101101101111
1111011101011100
1111011010111111
1111100100010000
1111100000111011
1111101101110110
1111110101010110
1111111001000100
1111011010110100
1111001101111011
1111110110001110
1111100011001000
1111110011111011
1111101011110110
1111110010000101
1111111000110000
1111110010101100
1111011001011111
1111111010010111
1111110001011001
1111111100101100
1111100011111101
1111111000011111
10110101110
100100101001
1111111010101001
1111101110011111
1111101000010011
1111101001010110
1111101001111011
1111100010001000
1111100110010101
1111010111100001
1111100000110010
1111011110111111
1111111010000111
1111011000110111
1111100100010001
1111101000010100
1111100001111011
1111111001110011
1111011000011101
1111010000000100
10110010101
1111100101001101
1011001011
1111
1111110111111011
1111110111110010
1111011000101000
1111010101111101
1101101111
10110101011
1111111101101010
11010100
1111110101110001
1111110010111001
1011010011
1111100101101111
1111110000100001
1111010111101111
1111110000100011
1111100110101110
1111111001001111
1111101100111111
1111100110111000
1111101111000101
1111110111101011
1111110011111010
1111011101110101
1111001110010110
1001000001
1111111011000101
111001001
1111111111100100
1111111111100011
1011011
1111111000101100
1111011101101110
110100000
100001011
10011111
111001010
1111100010010110
1111110010000001
1001000
1111110110001000
1111100010011011
1111100110001010
1111100101000100
1111011001100100
1111010111001000
1111011010010110
1111011011101001
1111011110100001
1111100101111100
1111011111011010
1111011100010000
1111011011010011
10000110010
1111111000011110
1111001010011101
100110011
100101111
1111111011001011
1000011001
100111010110
11011000101
10111110111
10000001110
1111110100010100
1111101000001110
1111101100101001
1111101110100000
1111101100100111
1111011010111010
1111101000000001
1111101101111000
1111100000101000
1111010100000001
1111101110100110
1111010101010010
1111101010000100
1111100110101000
1111110110101000
1111011011010011
1111001000101000
1111101101011000
10010101101
1111111011010100
100001101
1111111011001010
11000110
1111110011101101
110011010
11001110000
101000101
1111100011110111
1111111100111000
1111110010000000
100100111
1111111101110111
1111111101011001
1111110001010010
1111111011010000
11101010
1111101011011110
1111110101001100
1111110011100100
1111011100111100
1111101101110100
1111110011001000
1111110010110000
1111011110001000
1111001011110101
1111100010100001
11011111111
1111111101011100
100111101
11110000
1001010
1111111110001110
10010001001
1111011101111111
1111010
10010110111
1101110010
1110000111
1100011000
11000001110
11001101000
1110001
1101011101
10010001010
11010011001
1110000101
1111100100100010
1111111000101010
1000011010
1111110011011110
1111100100000010
1111111010101010
1100011001
1111110011010111
10010100100
100111111
1000100
1111111011100000
11101001
1111111100011110
1111111100100110
100010100100
110011101100
100111101
100000000110
11001111011
11010011100
101111000000
1000000011
10101010
111100111000
101110111100
1110001001
1010111111
100101110010
1101110101
10000101010
1111100001111010
1111110000000001
11110000
100001011001
11000110
11011111
100100010
1111111110101101
