11100110
1111111011100110
10011
100100100
1111111011101010
10101
1111111110111100
1111111110000000
1111111011101101
1100
101011100
11111100
1111110110101101
1111111001001000
1001110111
1111111110100001
1111111011011001
1101100
11
11010101
10101100
10001110
10111000
10001011
1111111011001110
1111111011010100
1111111110100101
101000101
1111111110100010
1011100
101010101
1111111100010110
10110011
100101110
10111100110
11100110100
10010110001
10111000110
101001110110
11111010001
10000011010
11001110000
1111100111000011
110010100010
1000110101011
110011000101
1111011110100100
1111110111011110
10000100000
1010110001
11100100110
10101001100
1111111110111101
100001
101011010
1111111111100111
10101
1111111011001011
1111111101000010
100110000011
100101101110
1111110100111001
1001011110
11111111010
100011000000
111111011111
1011111100011
1100111110001
101001100100
111000111000
101111001010
1111101110111110
11010110
1111101111001001
11011
1111101111010011
1111110001010010
1111011010110111
100001011
100001011100
1110010011
100111000
10
11000110
1100111
1111111110101000
1111111010111011
100111101000
100000001110
110011100
11110100100
100100011011
101101011101
1010111011010
1011110100001
101010111011
1100010010101
10001110101001
100101001000
101011110110
10001001101
1111010011011011
1111101110111010
1111101111100110
1000111010
1111101110110101
1111011000100010
101010100
1111110110001011
1111110110000110
1111100110010001
11111011
1111111011100101
1111111101011111
1111111111000000
1111110001011000
100011111
1111110100000100
1001001010
10101111011
10111101001
111100111010
1011010011101
1000000001110
111110010001
110000000110
111100000001
1000010111000
101001000000
1000101011010
110101001001
101011110111
101000010010
101011110100
111010100000
1000000001
1111100000111111
1111110101110010
10010000010
1011111
1111111010101111
1110111
1100111001
1111110000
101000110011
1111110100110001
1111111101010110
1111110111101011
1111011001001010
1111111110101011
10100
1111111101101111
1111110100001011
1111000100
1000000
1111110110111101
10010100
1111110111111100
110001000001
110011101000
10011110001
110111110010
101101001011
101101011001
1011010000
10100010101
10011110101
1111100011100000
1111111110011101
10010111010
1100011010
1111110101
1000110001
1111101011111100
11110111000
101100011
1111101001000011
1111110000101001
1100000001
1111111111011001
1111110000001110
1111100110100100
1111100000110010
1111110111000001
1111111011011011
1111100000100011
110010000
1111111011111100
1111111001001011
1111110001101000
1111110110110100
110111001
100001010001
101100000100
1111110010110000
100011110000
1111111101110010
1111111001100100
10010001011
10001000111
101000000000
110100111101
101010101101
100101100001
10100001001
1100111011
11111101
110111010
1111110001110110
1111011111000111
1111111111100100
1100010001
101011100
101101000
10101011010
1111110110111110
1111100111110100
1100111110
1110001
1111110001101101
1111110011001001
10010110101
1111101100111101
100100010101
100011010000
1010011
1111111101011110
1010101101
110010001011
110001101000
100101100101
11001010011
11011111
1001100101
1001110111
11001111
1111111010011101
1111111111100110
1111111011100010
1111110101100111
11001011000
100011111011
1100011100
1100100
1111101110010111
1111111111111101
11000001000
1111110001
10000000
1111101000110010
10110011111
110001100000
1111111110001111
1111111001001000
1000100011
1001011010
111001101000
101000000101
10101001000
1111010010
1110111110
11110010111
1100100111
1111111001000100
1111110101101110
1100111011
111010
1111111111111100
11111000000
100011011001
11001110
1111101100011000
1111110111100101
1111110110010000
1111110010001111
10100110011
1111101110000101
1111111001101001
100111101111
1111110000010101
1111111110111010
10000111101
1111111101011101
10111000010
111011000101
100000001010
1111111010000111
111011010
10111111000
100011111010
1001100101
1111110001011001
1111111000011111
11110011100
11111110110
110100100
10010110011
1111101111
1111110011011011
1111100101111010
1111101110011100
1111101100010100
101011000
110000110
1111011110011100
1111010000101111
110000010011
1010011110
1111110001001110
1011111111
1111101100000001
1111110011000011
11111011011
10001001011
1011000000
10001111
10100001100
10001001101
1111011111000001
1111100000001110
1111001
110100110101
110001000011
1111111001111111
1111100100100000
1111101001100100
1111110000000101
1111100111000110
1111100011001011
1111111001011110
11100111
110110101
1010011101
111111
101101011011
10000010010
1111110010111000
1111100101011101
1111000111110111
1111010110001111
1111111111110101
1011110111
11011001011
10100100001
10100001
1111111111101101
1111100110110001
1111101100000100
1011010000
110010011000
101110101000
1111100011101011
1111011000100100
1111100110110100
1111011001111110
1111100111110101
1111111010111011
1110111
10110100011
10101000000
10111000011
11011110001
11000100111
1111110001100110
10011100010
1111101110100101
1111010101110100
1111011000111100
1111100111001001
101101001111
11000011001
1111100111001111
1111111010101001
1111101011111101
1111101011100101
1111111111100100
1111111111000101
10000110000
1011100100
1111010111101011
1111001001011001
1111011001110101
1111100000001100
1111110111110010
1111110001001110
1111111100110010
100111100011
10010010110
100110001010
1111101010110111
1101101010
11001011001
1000111101
1111100111001100
1111101101110000
1111101000101000
1111110001010110
10000101001
110011110111
1111101110101111
1111110111111011
1111011111100100
1111101100010100
1011000100
1110110110
1111111010000101
1111101010010010
1111010101001010
1111001110000100
1111010101111100
1111010110000100
1111101110010001
1111111010111110
11000101110
10010111001
1111110000011111
1111001100
1111101101110101
1111000110
1110000100
1111111110010100
1111111101110101
101011111011
1111111001000101
1111110000110101
100010011000
100111100010
1010110110
1111111100111111
101111001
1111111001010101
1100000111
10011101101
1111111101110101
1111111000001010
1111100011001110
1111100000000000
1111001110011010
1111100011100000
100101111101
11100010111
11100111101
1111101001111011
1111101011011011
11000001000
1110111101
11100101000
1111101100010001
1111110110101101
11011110001
101110111000
110011110001
1111111011011010
101011110010
100110111100
1101111001
1111110110000001
11110110100
110011110010
1000010110010
101011001001
10110011100
1110001011
1111101110100100
1111011111101001
1111111000101010
11101001001
110011000100
101101000110
11111011111
1111111111100100
1111111010100100
1001000100
110101011111
110010101101
10010110110
1010111
11100101001
10111100010
1001100011110
11111001010
11110011100
11111001011
1010111001
1111110010110100
11110101001
101010101011
111000101111
110010011101
11000110101
1111110000111100
1111101001111101
101011000
10011010011
10001101001
10100001101
1001011010
10110100100
100011110
1111101110101100
1100100
1111101001011100
1111110100111011
100001100010
1111100100000011
10110011010
101101111
100010110111
11111001
10000100
1111110111110110
1111100101110001
1111110110100000
11110111010
100011110001
100001111000
11011110111
1000000001
1111101101001010
1111111000011101
11110011
10001000000
1111110011001000
1111100111111011
1111111100110101
1111110101010010
101110110
10110001101
101110010110
11000010001
1111001111101111
10100011
110110101
1111100110110111
11100010000
1000011001011
1111101000101000
1111110111011011
1111101010100110
1111101000100100
1010101111
100101111100
11000010111
1000010101
1010110001
10000110101
1111111111010101
11110010011
11010100100
10010101010
1111111011101011
1111110010011110
1110010110
1100111010
1111111111001000
101010100110
11110101101
11110100
110011111101
1111110101000001
10101011
1000011001
10011101001
1001111001011
1000011011011
11000001110
1100001001
11010111
10011110111
11111110000
1111000111
10101000010
1011110110
10000111111
11110000111
111101000111
100000001111
100110011101
100011000001
100100010111
111111111000
11100101100
1111110000011001
10110110100
10011100110
101101000101
111001110000
100011001
0
11001001
1111111100110001
110110010010
10111101111
1111111100101110
11111001100
101000101110
10011101100
1111011111
10001010100
100000001110
100001010010
101001110010
110100000100
1010000000010
100001101110
100111000010
11100000101
10011110010
101001011000
100001101111
1111110101001010
10001010
1111100000111000
11011100111
100110001101
1111111101110010
1100010
1111111110111001
11111010
100011010110
10011100111
1101100110
1111111111110010
1111110001
1000100011
1111111011011001
1011011001
100100110010
10010010011
11100011011
101000111110
1001110111010
11101010110
1000111010
11101011
100000111
10111010010
11100011011
1111111100101110
10011101000
1111010111110101
1111101111100011
10110110100
1101110
1101101
1111111101000011
101001100011
11000000101
10111100010
100011111111
11001
1111110111001001
10000110
1111100100010000
1111111000011101
111000000
101100
1011100010
101000011011
1010011011101
110001001010
1011110110
1111110110101111
1111101101110111
11001000000
110111110
1111111101100001
100001010110
1111111000111101
1111110111101110
101001110
1111111100001001
110000
111
1111101101011000
1101000
1111110001111011
1111110110001000
1111111100011100
1111110000001010
1111111010111001
10110
1111110100010111
11110100
101010101
111100011
100001010000
1000000001011
111010011100
11001
1111110001110001
1111110001100011
111111101
1111111100101010
100000
1111011111000011
10100111
1111100110100011
1111110000001011
1111111111111110
100101111
10111
1111110110010010
1111011111101111
101101111
10011110011
1111111011101110
1111110011001011
110001001
10110100
1111110100010001
1111100110101000
1111111010111011
1001110110
10011011001
101110011010
11001100001
1111101011001000
1111111100011101
10001110101
10011110010
1111111001110110
1000110
1110010111
110110110
1111110010110100
1010010010
1111111110000110
1111111110100110
10011011
1111111100110000
1111101100011111
100100101101
101001101
1111100100000000
1111011110010101
1111011011011010
1111000110110110
1111100100111100
1111101010110010
1111101000001001
1111110111011100
10100110001
1001001010
11000010000
1100010110
1111110000111110
1001101001
10100110101
1111100100111111
1111101010001000
11010101101
11000011010
111011111
1111111111001010
10011010
1111111100111101
1111111011101001
1000000
1111111101001011
1001001111
1111111001101001
11000000011
1101101101
111011
1111101011100011
1110111111011010
1111111001011001
10111110001
1111101101011001
10010110101
100101011110
1111111101110011
1011100
1111111101111001
1111011111010001
1111010100011101
1111101000011110
1111100000101101
1111111000101011
1111111101101010
1111111101011100
1111111100000100
1100101
