100000101
11001010
1111111110010001
111001
1111111110100001
0
1111111111010000
100110000
1111111101010011
100001011
100101
100
110111010
11000001
1000001
1101110
1000010
1011101
11100010
1111111110100100
1111111111100111
1111111011010000
100000111
1111111111111111
1111111110110010
11101010
11111001
10011111
1111111110110101
1111111111111000
100010100
10111001
1111111110001000
10001111
1111110010011011
1111111111001110
1111110111101000
1111101101011110
1111101010111110
1111100000110000
1111011100001111
1111010110001011
1111001011110010
1110110010110010
1110110010010001
1110111011100011
1111111110101000
10010010011
100000000
1111101011001010
1111100111110011
1111101011010010
11010100
1111111011000101
1111111111111001
1111111011001111
10000010
11111110
1111111110101011
1111110000010110
100101001
1000110
1011111011
1010000000
10111011001
1111100010000011
1110111001111010
1111000101111001
1110011111110000
1110101001101101
1110001111100101
1110001001010100
1110001100011101
1110110001011010
1110110101100101
10100101011
100001011110
111101000101
101000110101
10001110001
11010100100
10000101001
101000110
1111111110011100
1111111111001000
1111111111110111
10001010111
11100
1111011111101001
100101011101
100010100011
1010000001
1111110010011001
1110111
1111111100111101
1111110111110111
1110111011000001
1110001101101100
1110010011101011
1110000111000010
1110010110010101
1110000101000101
1110011111000110
1111100111011010
100001101001
11000101010
1001111000
1101101001
100001111001
10111110000
111101001
10100110
11001010
11111010
101111100
1111111011010011
10001111010
100101001101
110000100011
10110101001
11101001011
11101111000
1111100110
1111011111111111
1111000001010100
1110101011100110
1111010010011000
1111100111000011
1111111000010011
1111100000001100
1111001101101010
100010
100110000
1111100011011110
1111110010111001
11110011
1111111011010011
1111110001011010
1111110001101011
10101011
100101001
1011111
1001111111
1111111101110001
11000101001
101101111110
111010011
10010101000
10000101000
1111100011110010
1111101100001010
1111101011001010
1111011011101010
1110101001011000
1111011101100101
101111010
111001110
110000001
1111101001001110
1111011011011110
1111100000111100
1111011001010111
1100110
1111111100010010
11011101000
1111110011101101
1111110001011101
1111111010
1111111110010101
1111111010100010
1111100001001000
1111111010101000
11011101111
10011101101
1111111100000011
1000000001
10110000
11110100
1111101110000101
1111001111110001
1111010000100110
1111000111001100
1111011010010101
1111011111110100
1111110101011010
10100010010
110000010
10011111
1111100101101100
1111110001110110
11100010001
100100
1111111011110000
10100011
11001001100
10110010001
1111111101101110
1111111101000010
1111100011000100
1110010011
100100010001
1111101110
1111101111001100
1111110010101010
1100100000
1010110110
10010110
1111100010101011
1111010001011001
1111011010010010
1111100100011010
1111101101111011
1100101010
110100001101
10001001001
1100010110
1000000000
1111111011110101
1111110100101111
101101
1111101101100000
1111100001000011
11101101100
10100001000
1111100011001001
110100100
10100111
10111110
10100001001
10011010100
1111111100001010
1111101000
11011010010
1110001110
1111111101011011
1111101110111100
1111001010110001
1110111100000111
1111101011110110
1110001100
1110001110
100011011011
1000010011
10101011
1111111011010110
1111101110010011
1111101000010110
1001101100
1111100010011011
1111110100111111
1111100100011111
1111110001110000
1111110110111000
1111101011000001
1111111110110111
1111110000111100
1111101110010001
1111110101110010
1111110110111000
1011101110
101000011011
11100111
1111110010001011
1111111111111100
1111001100111110
1111000100011010
1111101100010110
11010000000
101101011001
11111010101
100011101
100100111
1111110101001000
1111101101100110
1111100000101001
1111110011100011
1011000
1111010000101011
1111010001010100
1001101010
1111110011110010
1111100101111000
1111110000010001
1111110000010011
1111110111011001
10010101101
1111111010001111
1111110100011110
1111111101111011
1111111000101111
1111110010111100
1111011001011111
1111000010000111
1111011000100010
1000010111
1000011110101
101001111011
11001101111
1101100101
1111101110100010
1111110111011010
1111111100111001
1111110111010000
1111001010001000
1111010010010001
1101000011
1111110110101011
11101101010
1111111000111001
1111100011010110
1110100
1001110001
1111110011111000
1111110010000110
1111100000011000
1111101101000110
1111111010100101
1111111111001100
1111101110110001
1111100001101000
1111100001000011
1111110101100010
110011010111
1000101101000
101100001111
10000101001
1001111110
1111110001010110
1111101110000011
1111111100000011
1111111111100110
1111010001110010
1111001101000110
1111110101011001
1111111000000010
11100010010
1001010
1111110001110100
1000010
1010000000
1111100100010000
1111011101111110
1111101001001100
1111111010001011
1111111011101011
1111100100010111
1111110101001011
1111110011001000
10100011110
11011011111
11010011110
101000100111
100001101110
111111
110101100
1111110111110111
100111
11011101101
11000101110
1111110001010001
10110010
11101001
1111110000111000
1111001100
1111101010000010
1111100100000010
100100111
10101100
1111100111111101
1010101100
1010010101
1110000001
1111111010111011
1111111110011001
1111011110
11000000
101111011
10111110010
1101011111
11001011101
11101001110
1111111101111011
101001101
1111111010101000
10011001010
11000010100
1111101100110111
1111100110100100
1111011100011100
1111011001001101
1111010110011010
1111011010101011
11111000
1111111100110000
1111010001101100
1111101100011110
100100100100
100111110
10000111011
100010
1110101
1010000101
110001011
110101100
10011100101
10110000110
10110111110
11011100000
11011011111
11
1111110000111101
1111111111010100
11000100
1110010110
101100000
1111100101101111
1111100111000011
100011000
1111100110100001
1111100100011011
111001101
101001000
1111101110101101
1000100100
1100101000
1111010000010001
1111110100110011
1111101010010101
1111101110111001
1111110000110011
100101011
11100100000
11110000010
100101101000
10000101100
10111111100
1011110010
1111110011000001
1111110000000110
1111101111100010
1111110000001100
1111001
10000110011
100100110
1111111000010100
1111101101001010
1111110110110111
1111100011010010
110110110
1100010010
1111111110110001
1111111011111000
11001011
1111101100111110
1111110101101010
1111110110110100
1111111011010010
1111101000100001
1111110011001100
10000011100
11001000101
101011101010
10001010101
1010111010
11111010000
10010010111
10011101010
1111111101011001
1111111011000101
1111111010001011
1111001000101100
1111011001101110
1111101011010110
1111010101111100
1110111101111000
1111010101101000
11111110
10000100000
10010010000
11111100
1111110111100010
1111110001101110
1111011100001101
1111101001001011
1111001010010011
1111101001111011
1111111011110110
111111011
1111000
1011111000
110100101
1111111100100011
10011101111
10010110
111000000
1111111101010101
101101100
1100001010
1111101011100100
1111111101111111
1111111110001001
10000110011
101101010
1111010111101110
1111100110111100
1000010110
1111101101111110
1111111011001111
1111101100000111
1111010100001110
1110111111100100
1111010101011111
1111010100011100
1111111000011011
1111110100001011
10101011
101001111
110010111
1111101001110011
1111101110111101
1111100110001000
1111001001101101
1111011110010010
1111011001001110
1110110011100011
1111110001001011
1111001111000001
1111010110110100
1111011111011110
111001000
110101101101
100000000010
111100000
1111010100000100
1100011000
11001111011
1111111110110111
1111000101000100
1111100101001000
1111110001010001
1111100000111101
1111110010000110
1111100110101110
1100001100
1111111001100001
1111111000011000
1111011111110000
1111100110000101
1111100011110011
1111000100100011
1111001000110011
1110100000001111
1110110010011111
1111010110010000
1111001010001011
1111001110001010
1111110111100010
0
100001111100
100000011110
11110110
1111011111000101
1111110000010001
1111110101010101
10110011011
1111110000100010
1000001010
1111111011011011
1001011
1111110010101100
1111110010000110
110111
1111110111101011
1111100011010010
1111101001111111
1111011001100110
1111100111100011
1111001010101000
1111010001110001
1110110101101010
1110110010011000
1111001010001100
1111101111111110
1111010110000101
11000101100
1111111010110110
10110011111
1000011
1111001011
1111111111011001
1111011111101001
1111011111101101
11100111000
1000000101
1111101110100000
1111101001011111
1111110000111010
1111110011111110
1111111101101101
1111101101011010
1111011111111011
1111011001100001
1111101011111110
1111011001001101
1111001110001010
1111010000001111
1111101000101010
1111110001000011
1111011101011001
1111101111101111
1111110010011100
1100100010
100111100111
1111101101000101
1111111010101010
1111111111010000
1011101011
111111001
1111111010011001
1111010111110111
10111010101
1010011101
1111110101010110
1111111010000110
1111100100000101
1111110101011000
1111110011100111
1111001110011100
1111001000111101
1111100110000000
1111110111000011
1111010011100100
1111111100101111
1111110100010011
1111100100010000
10011001010
1111110100100101
1111111010111001
1111111111111011
1111110101110110
1111111000011101
1111110101111001
10101100111
10111010
1111111011010111
101010000
1111001100011000
1111100010001110
1111101100011111
1111011111
10110001110
11001011011
1111100111100101
10001001000
1111101111000001
1111101011100101
1111111101010010
1111111111110100
1111101111010001
1111011011010010
1000100101
1101011010
1000000000
1110010111
1111101101010010
10100100011
1111110110100000
1111111110100100
1111110111000001
100100101000
110000110101
101001001
1111111101001011
1000110
1111110110001011
1111110111010010
0
1111110111000010
101111001
10110100
1111110011010111
1111111100001101
110001000
100
1111101001011010
1111110011011010
1111111000011010
1111011011100111
1111011010001011
1001000100
10010001011
1111011010
11011110
110000010
10011001100
11000101100
1111101000011100
100011011011
100011100110
1111111111011010
1111111111010001
1111111100100110
110101011
1000011010101
10101101110
1111111111110011
1111101110100111
100010001
1111101011001011
1111101111010011
1111100100111010
1111100110100000
1111100011000000
1111100110100101
1111110100001011
1111110000011010
1111011100011100
1111110101101110
1111110110111011
1111110011111101
1111111010110101
1111101110011011
1111110000100011
10111101110
100011011
110
1111111000000100
100
11000011
1111111101101001
1111111011011100
1010110011
1111101001010110
1111101000100000
1111111000100101
1111010010100100
1111001010001100
1111001011101000
1111100100111100
1111100101000100
1111011101101010
1110111011111011
1110101001010011
1110101100000101
1110101010001010
1110111110001101
1110111010011001
1111100110100111
1111010010011010
1111000000101000
1111010110111100
1111011110000000
11011011101
1000010
1111111111000101
1111111100001001
1111111101101010
1111111101011001
11111110
1111111110101001
1010011000
1101011101
1111101011110001
1111100010001110
1111100101000100
1111011110001110
1111100100111110
1111011100010001
1111011101010110
1111011000001100
1110101111111000
1110111011110010
1111001110001000
1111001000101010
1111001100100101
1111011110101010
10100010110
1100001010
1100101
10010010000
10010000
1011100
1010000
101000010
