11101110
1111111110101010
1010111
1111111111111111
1111111110011111
100110101
100000001
11100011
1111111011011001
11100110
1111111100001110
1111111100001011
11000100101
10110100011
1001100
1111111110101000
100001101
11010100
1111111010101001
1100111
100011110
1010000
1111111011000010
100110001
1111111010110011
11000110
1111111011010010
1111111010100001
1111111111011110
11
1111111011100001
111111
11010010001
11001100111
100110011001
111110111001
111010100000
1011110001100
1001010001011
11110100001
1111011011
11100111110
100100110110
1111101111
1111101100110100
101010010111
1010001011001
1011001111110
1100100001000
111100011010
100111100001
11100110111
1111111101101110
1111111011110000
1111111101000000
11100100
100111001
10100000
10110000010
1111110101010010
110001011101
1000010100100
111110111001
1011100010101
101010100111
1110001101
1110011110
110111000100
110100011110
1111010100
100001011110
110101110000
110000000010
101101000010
11111101010
110101111011
11110001011
1001000011000
110010010010
101001110001
1000100011000
1010010010
1111111100101011
100111101
101011110
1100100
1111110101111000
1110001011
1010101011
110001101001
1001011111110
1000101000000
1111101110101110
1111111001001001
1111111010
11100000101
1111110001011011
1111110111111111
1111111010010000
111100110
11100010110
11011000110
10100111000
11001100011
10101001
1111110101100000
11010000110
100010001
1111111000001100
1111100000111001
1111111001010001
1100011
1111111010101010
1111111101110001
1111111000011001
1111111101001010
1111101111101111
10110111001
1000110000
11011101010
1111110100000110
1111010110110110
1111100111001101
1111110001111001
1111110110001011
10101
1111101110110100
1111101010101011
1111110010100111
110010000
110101100
1011010011
11000011011
1000001
10100010001
10000101101
1111111010101110
1111101010000100
1111010111001111
10011001111
1111111100000001
1111111110111001
11111111100
1111011001011100
1111101001101001
1111111001110110
1111101011000010
10000100111
1111101000011101
1111000011100101
1111110100110001
1111011000000100
1111110010010111
1111100000011010
1111011101101100
1111101000110011
1111110000010001
1110100
101111011
110101101
110111000
1110110011
11000111
1100101110
11110100001
1111011000101011
1111101100110011
11101110101
1111111100101011
1001001
1111111101001011
1111101010100010
1111100100111101
10001111101
1111101111110001
1111111000101100
1111100110001011
1111110000000000
1111100111001111
1111011110000000
1111101101101111
1111110001100101
1111101101111100
1111111000100001
1111101000100001
1111110100000010
10101101
1111111101100101
1111111111111000
10111100001
1001111101
1111111001110101
10111101110
1111111100110111
1111110011010011
1111111110011011
1111111010101001
1111111110111111
1111101110010000
1111101001011001
1111100100010010
1111110110110101
1111101101100001
1111011101001110
1111101110101001
1111111011011011
1111110110100100
1111011011110101
1111101100100010
1111111111000100
1011
1111110100101100
1111100101111001
1111100011110111
1111111000010000
1111101000010010
10100111
1111111100111111
100010010101
11001000000
1111101111011001
1111101111000001
100010101000
1111101100111101
1111100011011010
1111111111111110
11100010101
1111110100000101
1111100111101100
1111110011001110
101010011
1001000100
1111111010000111
1111101111000011
1111101010110101
1111100111100001
1111110011111001
1111110011001000
1111110011010101
1111110000111100
1111010011000110
1111100000000001
1111001010011001
1111000001111100
1111010001101101
1111101011000101
1111100100001011
1111110001010100
1111100010010001
10100010011
10000010010
1111100001001000
1111101111011100
10001101101
1100100101
110111
111010010
1111011111000100
1111110110100000
1010000110
1111111011001111
1111100011110100
1111100011101101
1111100110100001
1111111011110001
1111100111010100
1001011111
1111110100110001
1111011011110111
1110111011110111
1111000000000100
1111001011001100
1110110000010011
1111001011100001
1111001010100010
1111010001000110
1111111011101111
1010101010
10110110110
111000011
1111101000011100
10011100111
1111111011001110
1111110111001011
1111100101100000
1111010111000011
1111111111000000
1111111110111010
1111101011000101
1111111000100100
1111011110001100
1111101011011011
1111110110100111
10001110011
11000101110
110
1111010100110100
1111000111011011
1111100000010111
1111010110110111
1111011001001011
1111011010110100
1101
1111010110011000
1111011100100011
101010010
1111110101010010
1111011111000100
1111111011110111
111000000
1111111001000110
1111111011100011
1111111110010011
1111010101101001
1111011111111110
11010001
1111100000000011
1111111100010110
1100000000
1111010010
10101010111
101001111001
100011010000
1111100100
11001111
1111100010110000
1111100000110000
1000100100
1111111100010110
1111111111000110
1111110010100001
1111100011100011
1110110000000010
1110100011101100
1111010011111000
110101011
101011011
1111001001000101
10000011000
11001100
1111110011010110
1111011111111010
1111011010001101
1111100000011100
1111111011000110
1111111001101001
10001000001
101100001001
101101011010
11001001111
1111110001
101101001
1111111110101111
1111111010010100
100011
11010101
1111111100110000
1111110101101001
1111111010111010
1001000011
1111001110010111
1111000101111101
1111010101110110
100000011110
1111101111111011
1111011010011111
10000111111
10110111
1111101111110011
1111101001010100
1111011111101011
1111100101011001
1111101110111111
1111111111111101
100110100001
11010010111
11100111000
1110111111
111010000
111011
1111110001000111
1111110111011110
111100010
1010110000
110110010011
10011001
1111111100001110
100111
1110110010001010
1111000001000010
1110110010011011
1111101100100111
1001100011
1111100110110110
10000000111
111011010
1000000000
1111001011111000
1111000101010101
1111100100000111
1111111110011100
11001110011
11100001001
101010100
1101000011
1000110011
1111111001001011
1111111010001111
1111110110001110
1111110111101011
1100001011
1110110000
101011100011
100010111001
1100001010
1111011111100111
1110100111110100
1111000000101010
1110111100000110
1111110011100010
1000100001
1111110110101111
1011100000
1111110001111011
1111101111010011
1111000010100111
1111011111001001
1111101100011111
1111111011100101
11101101100
10111010001
11100100101
10111001011
1010110111
1111110000101100
1111011110110001
1111110110101100
0
1111111101101011
1111111011
110100010
10101001111
1100010101
1111110101001111
1110110000101110
1111000100100110
1110111111011011
1111101100000010
111111
1001111011
101111
1111111111110110
1111110100000010
1111010010010001
1111011100101011
1111111111110101
1111111010101000
10011011000
1001101110
100101110001
1111111101001110
110000
1111100010110001
1111100000000000
1111111010110101
1111101111011100
1111111100110101
1000011010
1111110010111101
1111111010110100
10011011001
1111110101011101
1111011010000100
1111000011001001
1110111010101011
1111100001001101
1111111010110111
100000011011
1111101100011101
1100010010
1111010111000111
1111100000010000
1111101100010111
1111100001010000
1111111110001111
110100101
11000110111
1110100010
1111101101011000
10111110
1111111110100101
1111100100110101
1111101011000001
1111110001001001
1111111000100101
1111111011010011
1100010
1000101101
10000011110
10101011
1111101011010001
1111001111101101
1111100000010110
1111001011001101
1111100001000100
1010000111
1111011111000111
10001010110
1111100110110111
1111010100011001
1111101100011011
1111100011100000
1111100011011100
1111111010100011
1111110110111101
11
1111011000
1110111110
10011010110
1100000100
1111110100111001
1111110011000000
1110011101
1111110000101100
1111100101110001
1111010111001101
111101111
1110111101100110
1111100111100111
1111011111111010
100011101
1111111011101011
1111111110100110
1111111010011110
10000010
10010101100
100001111
1111100011001001
11101111
1111111110100001
1111011001000110
11100010
1111101011100010
100010110000
10011010011
1111111111100111
1111111101101110
10000000001
110110011
1111111000111110
11110
1111110000001010
1111110001101110
1111010110010100
1111100011100001
1111010100100101
1101100001
1111101101001110
1111010110110010
1111111100100110
1001
1111100100111000
1111110010100100
1111100111011110
1111110010100010
1111110100001010
1001000101
1111110100101100
1111101010001000
1010101
1111111010001011
1111111111010010
1111111001110101
1111110110000101
100010011100
10111101001
100011000
1111111001011011
1111110100111000
1111110011101110
1111011111011110
1111010010010001
1111000001101100
1111001111000101
111
1111110110101001
1111100110110111
10110111
111100100
1111110100011100
1111100001111000
1000111
1111100111000011
1111011011110101
1111011001100101
1111111100001010
1111111000010001
1111101010000010
1111101111100111
1111110101100010
11010
1100111111
1001111101
1111111010011010
1001010100
111101111
1111111101001110
1111101111010110
1111101000001111
1111010010000100
1111000110000110
1111011011000100
1110001000
1111110110010101
1111111100110010
1111111110110001
10011011
1000001000
1111111100110010
1111111111101010
1111110010000011
1111010111011000
1111010110000100
1111101011101100
1111101010010010
1111101111101101
100001
1111101111001010
11111
1111101010111100
1111110100101010
100001011
1001100000
111101110
1111111000101000
101111010
1111111100010110
1111111010010111
1111010111111110
1111011100001111
1111001101011101
1111100100100111
101100100101
1111110100111000
100100101
1111111100101011
1111110100111010
1111111010100010
100101010010
111000110
1110111101100010
1111010011100001
1111011110111111
1111111101101000
1111110101111000
1111111110111101
111101
1111100100101001
1111101101111100
1111110111010000
1111110100001000
1111101011100011
1111110001111010
1111111001110011
1100010110
10000010011
1111101110001101
1001011001
1111100011001000
1111100000111010
101100010101
1111111101000111
1111111010100100
10110001
10110100
1111111111100000
1100010
10110011
1111100011011111
1111111000001100
1111011111011101
10110011110
1111100110000010
1111110101111100
1111000001011011
1110100110110110
1110110010100100
1111010110011011
1011110010
11011111110
100001011011
11011100001
111110101100
111110101111
10011101
111001010011
100000110110
101011101010
11000110001
1100100
1111111101000101
11110000
10011001
111011
1111100011101010
1111110110001111
1111110110101111
1111100000010110
1111100110111001
10111101001
1101110010
111110010
1111101001100100
1111001010000111
1110111101110101
1111011011011111
1111110010001000
1111110011111101
1111111011001011
1101111011
10101010100
100000110101
100010111000
11111011111
10011001110
1111111000011101
1111111010101010
1111111111111110
1111111110010110
100111100
1000010
100101
1111100100000001
1111101011101010
1111011011000011
1111101101010001
1111010111100111
1111110001100001
1011111010
1010011101
1111111011111101
1111100110100100
1111000011011001
1111101011111110
1111101010000001
1111001110100011
1111101011111111
1111011101
1111111110110001
1111011000011101
1111110011011111
1111100101010110
10100100
1111111100111110
1110010
1111111011101010
10010010
100111010
11001000
1111111101001110
1111110111010010
1111111001010010
1111100000000010
1111011101100001
1111101000100011
110101000
1111101100110011
1111100010010011
1111101110011000
1111001011101101
1111010010011110
1111011000001111
1111011110010110
1111011011000000
1111101100101000
1000001101
110101001100
10101100001
11001001001
111100111
1010101
1111111110100111
101011100
11100111
