101010
1111111111101111
1111111011110101
1111111101100010
1101101
1111111110000101
1111111100111100
101010111
10001110
1100110
0
1111111110000111
10011100001
1110101010
1111111000001010
1111111001100001
1111111101011111
1111111100110100
10000101
100011000
1111111101111101
1000101
1111111101000101
1101100
10000001
10011000
101010011
1111111111110001
100001011
1111111011110001
1111111110100001
1111111110100110
1101000000
1011101001
1111110001010100
1001111010
10010010111
11101111110
10011111010
100000001110
100010011001
100000000010
100011010011
1110100001
10110100000
11111111110
110000001011
100100001110
1101000000
1010111101
1111111000001100
1111110010001110
1111111100101101
10010010
1111111110010001
1111111110110110
11000000
1111111111110001
101110110
1111111000101011
10010011101
10010010000
10110010111
1101100011
1100111101
1111110100100010
1111101101100000
101001101
111110000
1111001100110001
1111001100010011
1111100111110100
10111111010
100000100001
1000111111111
1010011101010
1001001011000
1001001110011
110000011101
1011110101
1111100100011110
1111100001101110
1111111011001111
11111000
1111111111111101
1111111111110011
1111110100000101
1111010001110000
1111110011100000
1111110010000011
1111011100001010
1111111110011000
111011101
1111101101001000
1111110000110111
1111110001111110
1111101000000110
1111111001001110
10110101111
1011110111
11010101000
1001010011
1000101101
111011111
10100011100
100101101011
10100000100
1111111111111111
1111100000100011
1111101010110001
1111110110
10010100
1111111111111101
1111111010111010
1111010111011010
10000111
1111100000110110
1111100100110000
1111010110010000
1111101101100010
1111011101110100
1111101101101000
1111101101101110
1111011100010111
1111100010011110
1111101111001011
1111111110001011
1011100
1101100011
10110011011
10111100011
10110001001
101000100111
110100111101
101000010010
1010101101
11100111
101010000
1111111101001010
1011000001
100110010
1111111010101001
1111001010110110
1111010100101001
1110101111110000
1111100110100011
1111001111001001
1111001100101001
1111110110011011
1111100011101001
1111110000100100
1111111001010010
1111101001110111
1111110101101001
1111110100010101
1111110110110011
1111111001000010
100000001011
10011110000
1001110111
1010111010
100001011010
100010010001
111010000000
100000100001
1111111010000000
1111111111001001
1010000100
1000101
1111100111011011
1111110010111100
1111011101111000
1111010001110100
1001110001
1111101110100100
11001011
1111111100100010
1111111110010110
101001
1000111110
1111111100111000
1111111101100010
1100011
1111111101001110
1011010111
10111001010
10000000000
10011001100
10000000
100010110
1110101110
1000000101111
1100110000000
10110111010
1111111111101111
1110010011
11001110
1111110111101001
1011000
1111100010110111
1111010101010111
1111101001000100
1111011101001110
1111111001001011
1111110000010010
111111
101000001111
100101100111
10000101101
11100100011
1111111011110010
11100010
10001110001
111100101
1100111111
10100001
1011110010
11001111
11011001011
100000011010
100011110011
111011001010
1111101110110100
10010010110
1111101001110000
11110011110
100100000111
100110000
1111011110001001
1111010111111011
1111011001011100
1111111010010000
1111111110100101
10100110101
100110000001
110010101100
100101110000
1111110111100011
1111101111100010
1111101000101110
1111110000111100
1111110001000101
1111111000001000
1111101000001011
1111110110001010
1111111000100011
1100001001
1001011001011
1010110011101
100100110110
1111111101001111
101010110
1111110111101100
1100001110
11011010010
110011001011
1111010110011000
1111011111000010
1111110101010011
110010110
100111100100
1001100010011
1010100100010
1001111010101
101111101101
1111101001001001
1111100000101111
1111001101011010
1111010000010110
1111101000111001
1111111001001101
1111110011000011
1100100011
100100011011
111110111110
1010111010011
10011000011111
10010010011
1111111000001000
1111111111001110
1111110111101011
1111111001000011
11010010011
101000101010
10100011101
11111010000
1000011110001
1011111010011
1101010010010
1100100000100
111000011001
100000100011
111111110
1111001101100010
1111001001110101
1111010101011101
1111100001001110
1111101110111101
11110110
1111111010011110
1001000000111
1001111101010
1111101001000
1101111011000
1010000010010
1111011000000001
1111101010000110
1111100001111010
1111111010101100
1111110001000100
100100001001
100110111
10000111011
1010000010011
1110001001001
1011000001111
101011100100
100100110100
10110001001
1111101011100011
1111100001101100
1111011110101110
1111001001101000
1111011101011000
1111111101110010
10101001011
100110010100
11010110111
101111000001
110001111011
1110011000010
1100101011000
100010111100
1111010001100001
100110110
1110111101
10000010
1111110110110110
100000100101
1100001001
10011111111
11111000001
1000100010010
1111111100101111
1111110111011110
1111110011100011
1111100111001100
1111101101001000
1111110111110111
1111110100100011
1111011001100011
1111110110110010
10100000100
10111100110
110000110110
110001100101
100100110000
1111110011111100
110100111101
1001000110010
1000101111111
1111101100010010
1111111101100111
100000011011
1111110001010110
1111110101010111
10010100101
1111111100101011
1111111011100001
11111101100
1111110011110101
1111011100110100
1111010110101010
1111100001011110
1111101110010100
111100110
100001001010
11110110
1111100101001110
10111110
1000010110
1111110101
101000110110
100011111001
100001010110
1111110111010100
1111111100010111
100101011100
110101010100
10001010110
1111110000110000
1100001110
1111010001
1111111100001010
10011011100
1111111001100000
1111110101010110
1101010110
1111100100100100
1111100110111110
1111001111000001
1111110001101111
11001001110
101001010100
101100010000
1100100111
1111100100111001
1111111100110100
11000000111
101010010110
100111111100
11110111
1011000110
1111111010011100
1111101100101101
10111101110
10111000100
1111101110011110
1111011110100001
1111011100111000
10001010000
1010000
1111111000001100
10111111110
11000101011
100000101
1111110101010000
1111100100001001
1111110010000011
101000100
111110110100
111001011011
100100000001
1111110100011010
1111101011110011
110000100
11111111100
10111111111
101101001111
1010111011
1111110011111101
1111111101111101
1111110101111101
1111111001000001
11111101011
1111100011111000
11100
1111001000110100
110001100
1111011000100010
1111110101011000
11011011010
11110100111
1100111001
1011000010
110111001
100001110111
10011100111
111101110010
101011101101
100111001010
1111111110001101
101000111
11100100111
1110110011
111011101
1101111100
101111100
1111101100100011
1111101101110110
1111111110000111
101100101
1111110100100111
1110111111010000
1111100110101001
1111111110101000
1100000
1111010101000111
1111110101001000
11101100010
1011110101
11101000100
10010100
1111111100001111
101010001
10010001010
111111000110
110010100110
100011111100
10101111011
10111110001
11000110110
1111111011001001
1111110111101011
1001010101
1111110111010110
1111110111111010
1111110001111110
1111111101100000
10111111100
100111110001
1111011101001000
1111101101001011
10000110100
100001011101
1111011100001101
1111111101101001
11111001110
11001001100
10100110000
1111110000000001
1111111111001100
1111101010110000
100101
100110000100
100011100000
100010001000
100011101011
11011011111
1111110000110011
1111101100111010
1111101100101000
1111101101001000
1111110000101101
1111111000101010
1111101000110000
10101101
1111101010100000
10010111101
1111011101110011
10101010110
1111011110101001
1111110001011000
1110100100
1101000001
10010110111
1001001111
1111111111111100
111110110
1111111000001001
1111111111001010
100010010
1111111000000110
10000101100
11001000110
1111111110111100
1111111111011000
1111101111010101
1111110011101000
1111011001100110
1111101000011100
1111110010100010
1111110011000000
1111100001101010
1111111010001100
1111111101001010
111010110
101010100
1111011100110100
1111110011011001
1111111100100110
1110000100
1111111010111101
1111110010001100
1001000001
1000001010
1111110100000110
1111111010011011
1001101
1111111100011011
1000110100
11010101
100100111
1111110111110001
110111
1111110110110000
1111110001011001
1111100111001010
1111100001000110
1111110100111100
1111010011010110
1111100110100001
1111111101001100
1101111010
1111111110111101
1110101101
1111101010101000
1011010011
1111111000100011
1111111001111110
1111010001010001
1111110101101001
1010010100
1111110101101000
1111110000100001
0
1101110000
101001101
1000100010
11011111
1101100011
11001111
1100010000
1111111000001011
11011111
1111110000110101
1111101101000000
1111100101111010
110000100
10110010011
100111000110
1111011110010001
1111000001
1010010000
1111110000010010
111101111
1111110100001110
1111111001010110
1111001011001100
1111111001111000
10100
10010010
1111101011110111
1001011
1001001001
10001100
1111111001111001
1111111010011101
1000000010
1010001110
1100011011
101000011
1111110000
111101111
1111111011011001
1111101100000100
1111110010010110
1111110100011111
100010111100
1111101111011110
1111110011101111
1111101011111110
10100100100
100000110
1111111101011100
101000101
1111110100110001
1111101100001010
1111111001100111
1010110010
1001001110
1000000100
1111110101000111
1111101101101100
1010
11011111
1111111011100011
10010101100
1100100110
1111110000110101
10001110010
1100000001
100010111
1111101011111101
1111100110011010
1111100110001000
1111110111011011
1111010001111010
1111111101010010
1111011010111011
1001010111
1111111011101100
1111111011010110
10100011
110111011
1111100101010010
1100000111
110110110
1111110010011000
1111101010000001
1111100100011100
1111110000001101
1000111100
1100111101
111111000
1111110100100000
1111110011011001
11010101
11011111011
100000110111
1100110100
1110101000
10101010100
1111100111000110
1111100110001111
110
1111110101001111
1111011110000111
10101011
1000100
11111
11001101
1111100101110010
1000110111
1111010100111100
1111110110000110
1111101100011101
1111110100001100
1111100100100101
1111100000100001
10111100100
110000001010
1111110000001000
1111100100000001
1111111110001111
101100110111
1001011110100
1010000110110
11100101010
10110010010
11111110000
110110101101
1011000000110
1111001001
1111100111001010
1111111101100110
1111111011111000
1111111110000100
100000111
10111001
10101001
101011111
1000101010
1111111111000100
110001100110
100100000101
1000110000
101110001101
101100100010
111000000110
1000001010010
1011100101001
1011001111011
1000001011111
1100111001
1111111111001100
10111000011
1111111101001011
1111111001100011
110101101000
101100111010
10010101000
1001101111
110001
1111111010111101
101000100
11110111
1111111101000000
1111111101111100
10011111
111111101
110001000
1001010001
1110110000
1111001011
10010100011
110010001000
111110011000
110000010011
110100110111
111110111001
111011100000
100110001100
110100011111
101010001000
110100101001
100011011000
1001101011
1111111000011101
1111110001101110
1111111100010110
1111111011011111
1111111101011100
1111111111010100
