1111111110100000
1010110
1111111011110000
1111110
1111111011011001
1100101
10000100
11101001
1111111011111011
1111111110001000
1111111110111100
1111111100010000
101000010
1011011010
1111111111100000
101001001
11000110
1111111011011001
1111111101010100
1111111100011011
1111111010111101
1111111111000101
1111111111100101
10
1111111100010001
1111111101111011
1111111011111001
1111111110011010
1111111100010110
11101111
10101111
1110010
101011001
111011
100000100100
111010110110
111101110010
1001100101101
1011111101010
100100010000
11100001000
10010111011
1111011000101011
100001100100
11001111100
11000101110
100011010000
1100000011
1110010
100100101
100111101
10010111
1011000
1111111111001011
100100111
1111111100100011
1111111101110111
11101011
1111111101000010
100011000101
100011101101
11000001111
101010111
1111101011
1111111100110111
11111110101
1111101000001011
1111101011101010
1111100000010101
1111001000100000
1110111011010001
1110111111101000
1111010100000011
1110110100100011
1110101110000001
1111110100011000
1111110111001010
1111110000010001
100101011
10001110000
110001
1001001101
1111111101101001
1111111011010100
10001001
1111111100010001
1111110110110001
11101010100
11001001011
11110010
1111101011110011
1111101111111010
10110001010
1111101100010111
1
1010101110
1111111011100010
1111110100100001
1111110100011110
1111100110101010
1111110010010101
1111110010011101
1111100101000010
1111101100101011
1000000100
1111011010100110
1110111000010110
1111011011010111
1111100111110110
1111001100
11010110000
11100000
1111111111100010
101110
101100110
101000100100
1111101110101110
1111111001000000
1111101101110000
1111110110111011
1111101111001000
10000001011
1100100111
10100001010
1111101010010010
1111011011000100
1111011010101010
1111110100011010
1111110110001011
1111110100010001
1111110001101010
1111111000111110
1111101100000111
1111011000010101
1111101000111111
1111110000011101
1111101010110110
1111010111111000
1111001110
11001111110
11111110
111011
1111100010110011
1111111100011111
1111101110100111
1111101110010011
1111100110010100
1111011101000010
111010000
1111111010101110
1111110000011110
1111111101100101
1111100101110000
1111100010111011
1111011101001000
1111011100011010
1111100101110000
1111110110110110
1111101010110100
1111101001111110
1111101010001110
1111011101011111
10001001
10001001111
1001011010
1111011010101100
100100011111
10100110000
1111111011110011
1111111110001100
1110001011
10110101000
11101011101
1111111110110000
1111111111101100
10011101001
110000001
1111101011000001
1111110110000011
1111111101111000
1111101011110001
1111101011011111
1111011110100101
1111011011100001
1111000110101011
1111011010101010
1111100001000101
1101000111
1111111101110000
1110011001
11010111101
10000110010
1001111
1111101000000001
10000010001
11010011011
1010001011
10111001100
10010000010
10110001101
1010010011
1101110001
100011100
11001001111
1111111101001101
1111111111001001
10000101111
110111000
1111110010011110
1111010110111011
1111010001011000
1111001000101110
1111100000001011
1111100100111010
1111100101011110
1111111101111100
1111110110001110
1110111
10110100000
111000000
1111111001010011
11100010
1111111110000101
11101110111
100010011010
10101110111
11110001111
11011000000
1111111001101110
1111111011111011
1111111101111000
1111111100100110
10111110
11101101
1111110110001010
1111101011100011
1111111100110100
1111110110100010
1111110001001100
1111101000001010
1111111100000000
1111110011110001
110100110
1010110110
10000001111
10010101011
1111111011101101
1111001010
1100100101
1000000111
1111100111101101
101111
110001111
100011101001
10000101001
101001001
10000001
1111111011101111
1111111100100110
1111110101110001
1111111101100101
1010
1001110000
1001110110
1110101001
111100100
1111111101010000
111111
10011000010
101100001000
110100100001
100110110111
10011110001
1110111000
10001100010
1110001010
101010000011
11100100100
1111011100000111
1111101000110110
1111111110010101
101010010101
101011011010
1111111010000010
1111111001000101
10001001100
101111011
100100011
10101010
10100011110
100010101101
11111100100
1110111000
1100001101
1111111111110000
1111001000
100011010100
11100001100
110000011000
101010011111
11011000000
101010101101
100101100110
101011110101
101001111100
1111000111
1111101000001011
1111100011000100
10100101100
100100001000
100111011101
10001010100
110001011
1111011110001001
1111110010100100
1111110110011010
1111111110100111
1101101110
100110111100
110000111000
10000111001
10010000010
1111111001000111
1111110000010001
1111101111110100
1011100110
1101100001
1100110011
1011011100
111111000
11111001000
11110110000
10111010001
11001100101
1111110110011111
111011000
101101100
110100010
1001101010
101010111
1111110001000111
1111101001011001
10101
1100101100
1011010110
100001011110
101111110100
11010111111
1101101110
1111111111101110
1111011101000100
1111001111100000
1111100111101010
1111110001001100
1111101111110100
1111011110001000
111011011
1111110010011111
11011000000
11001
1111111101010011
10100001011
101011110101
10111101010
1111111010010101
1111101110010101
1001010001
1111111111110111
1111101100101001
100111100
1111111101110000
10100000110
111000011
10101110110
10010110010
10100111
1111101100110011
1111010100111010
1110110111100010
1110100101100010
1110111111100011
1111010001101011
1111010100111100
1111100100001100
1111110111110110
11111101010
1111010010
1110111000
1101011100
100111111011
10100100110
1111111110100100
11000010
1111101101111001
101001000111
1111101010001011
1111011111110000
1010110100
1111111011001011
11100110
10000001010
10110011111
1111011110
1101101010
1111100000110100
1111011110001010
1111011000001010
1111011100001100
1111010001101100
1111001110101010
1111010100110001
1111001110000010
1111110010101001
11111101
10010011100
101011000110
101011001101
1111111010111111
1111100011101101
1111010111011001
100000111
110101110
1111110111000000
1111101001000001
1000010111
1111110110001101
101001100
11111000011
1111
101001011
11110100
1111111000100100
1111101001011010
1111001111111010
1111011010110001
1111111000001100
1111011010100010
1111011000110011
1111101100111100
1111101010000001
11100010
101010011
11110101
100011111111
101100001111
111111001
1111100111101001
1111100010000001
111011000
1111101111000110
1111101101100000
1111100010010001
1001110100
1111111110011111
11000110
10010011001
1101001101
1001110111
1111101111011110
1111100001010111
1111010100010001
1111001001111001
1111001011101110
1111011101001011
1111000111101011
1111100000000011
1111110100111111
1111111010011010
1001111011
1100011110
100111100
10111011100
10010011
1111101101100100
1110111110100100
11101110100
111001
1111111100100010
1111110100111011
1111111110100011
1111110011110011
100110001
1111111001000000
100110111
1111101101110100
1111111101001001
1111110100101011
1111011101110010
1111010100101101
1111011101000100
1111100110001000
1111100110111110
1111001110110111
1111111101010000
1111101110101101
1111101100000011
10110110000
11100
101000000
10110000110
11001011100
1111110111000111
1110111001110001
11010000010
1001001001
1111111011001111
10000110110
1111011111000000
1111110111100101
1111110101110110
10001010110
1101000111
1111110110000001
1111101001111011
1111110010101111
1111111011000110
1111110100010110
1111111100010001
11000000
1111010111011100
1111010010110010
1111101101110110
1111110001110010
1111111010101011
10101001101
10000111111
11000110000
11101101100
1111111111111101
1111101000010010
1111101100110111
1111111010011000
1111111111111111
100111011110
1110101001
1111101011111100
1111110011101011
1000100
100010111000
1110001111
1111101111001101
1111110010010000
1111110001100010
1111110000110111
110010011
1111110001110111
1111101100101101
1111010001100000
1111101100001001
1010111001
11100011
11011
10100011010
1111111010000001
1111110110110000
10010000001
10010100
1111011010001001
1111110011111001
100100
10111010
11111011100
1111011111000100
1111010101110111
1111101011100100
10100001000
1111101001010001
1111110010000110
1111110010010101
1111111101111011
1111110100011000
1111101010
10101011001
1111111011110101
1111100110100100
1111011111111001
1111111001111100
1110110011
11110101
1111110110011010
1111110011011100
1111101011000100
100111000
10110
1101101010
1111101111011001
1111100111011100
110000010
1111111101101000
1111110111001110
1111100011011000
1111010111110100
1111110000000010
10010010101
1111110000001111
1111101101010110
1111110100111011
1111111111001111
1111111001000000
1010111110
10110100
1111110011100011
1111100111111011
1111101000100000
1111110110011100
1011010001
1111111111111011
1111111010100110
1110001110
11001001110
1111111110011101
1111101110011111
1111111111001101
1111100010010011
1111111110000001
11001111
1111110111001101
11101101
1111001100101000
1111001000000111
1111100110110010
111110
1111110010010010
1111100010000101
1111111010100101
10000000
1111100001001011
1111100001100000
1111110110000000
11010001
11001
1101100100
10011010010
100100111011
10111010011
1110000
1101000011
11010110010
10010011000
11001000001
1111101011011110
1111010101010111
100110110100
1010111
1111111110000110
1111111100010010
1111110010110011
1111010111101010
1111011111000011
1111101110110100
101001011
1111100101001000
110001110
10010101100
10100101010
1000011100
10111101
1111111011100011
10110000100
10000100001
100100101000
100100011101
110101101
1111111010001101
101110100
10010010110
1111110011110110
1111110001000111
110000111
1111011011011011
1111111100100001
1111111010111101
11111111
111
1011111011
1000110110
1111010000100011
1111010111101000
1111101010101011
1111101101000101
111010000
10111101011
11111000110
111101100
1001000110
1111110110010001
10000000
1111111010110001
1010001
11010110100
1111101111
1111111111001010
1111110011011111
1111010101101010
1111011110100111
1111101010111100
100010000111
1111000010010111
1111011010101001
1111111100000111
1111111110010111
1111111011100010
10101010
11101111111
1111011010100001
11011011
11011100001
10000000101
1111011100010000
1111111010101110
1111110101111100
1011011001
1111110111110001
1111100110000101
1111111100100110
101111010
100101000010
1110011111
10000011100
1111111001100010
1001100110
1111101100101000
1111111001
11101100011
10111011111
1000110010
1111111110101011
1111111100011101
1111111010100001
100110010
111110
100111100
1111011110111011
1000000011
1010100
101000100010
101000001101
1100011011
10001101011
101000110011
110010011010
11110010101
1010100001
110110101011
111001001111
11011100
1111111101101000
1111111010111100
1111110101001011
1111001101110101
1111111111000100
1111110100110110
1111100101101010
11001100
1111111010101001
1111111110000000
1111111111011011
111001
100001011
1111111011101100
1111110011111110
1111100000010100
111101010
1111110000010000
1111100001001111
1110111110110010
100011100000
10100011
1111100100101110
1111011010010000
1111110011000111
1111110000110011
1111111110010100
1100011000
11101100011
1111100111001101
1111010101011111
1111110110000011
11011100101
111011110
1111111011010001
1111111101011111
1111111110101001
1010111
