1111111011100010
1111111100100011
100001101
10001000
1111111111010010
1111111110000001
1111111100101111
1000101
1111111011101000
1111111101110010
1111111111111001
1111111101101000
1010111101
100010000
1111101110010110
1111111011000001
100110
10010011
100110011
1111111101111000
101001001
1110101
1111111111001100
1111111010101111
10111
1111111111001000
1111111111110110
11
10110000
1111111110010010
1111111111011000
1111111011100000
1111100011011101
1111010110110001
1111000010000111
1110111001010111
1111101110010111
101011010
1101101011
1111010001001101
1111001101100000
1111001010001111
1011010111
1111011110100100
1111010000110010
1111100001000100
1111111101110111
1111011101000101
1111001000000011
1111011110010101
1111010001011101
1111010000101011
1111111011010101
1111111011010001
1111111111000000
1111111101111110
1111111111101100
1111111110001011
1111111001101110
1111011100001010
1111011010110110
1111100111000101
1111001011111110
1111000110111110
1111110010110110
100000000
11001100011
11111111011
10010011101
110101110000
100111001111
111000110
1111100010000111
1111100001101100
1110110110011000
1111000010110000
1111110010010000
10101001
1111101110110100
1111010100111100
101000101
1111111000000111
11110010
101000110
1111111110000000
1111111111111000
1010011
1111011100101000
1111100000110111
11011000011
1111101001000110
1111111100001011
1111000010100010
1111111001011100
1010010
1111111111111001
1111101001111110
1111101110110101
1111101111011000
1111110111111101
1111010001011110
1110110001011110
1110011001111111
1110101011011011
1111010011011101
1011011010
100111101011
11000110111
1101011110
110010001
1111000101
1111111101110111
1111111100010011
100100010
10100000010
1111111011011010
101001100
1111111100010100
1011001100
11100000110
10101111011
1111111111011111
1111111111100001
1111100000110111
111010000
10101011001
1111111001100001
1111001110010111
1111001100110000
1111010011001101
1111011010101110
10001100011
1110010110
1001001010
1110111101
110110100
100000101111
11000101010
1111101001011101
1111111100000111
10010000
1001101
10010000011
1111110011010101
1101000111
1111101101111011
1101111001
10110001010
100010111111
101011110000
1011001011
10011110
1111100101001010
1111010111110001
1111001110111110
1111001111100011
1111001101000000
1111101000110101
10000101110
1111111111101000
10001000011
1111111000010010
10000100
11000100010
10101010110
100001010000
1111100100101111
11000100010
1111111111001001
1111111111101001
10101110000
1111110101010000
1111110011110100
11100011
1111111001110011
1111101001100101
1111100001011011
10000110010
1111110000010110
1111110011111010
1111110011110100
1111100110110110
1111010100101001
1110111101011111
1110111001000111
1111011000111101
1111111110111110
10110
11110010110
1100110100
1010011011
10100011010
1111110111111110
10011100
1111111001000111
1111100100110100
1000011010
110010010
100011010011
1111111100111001
1111111011000101
11101000
1111101010010100
1111110110000011
1111101101101000
1111011000100001
1111100111110011
1111111110010000
1111110110110101
1111110010110010
1111010100111110
1110111100110100
1111001010000010
1111101000101010
1001001
1110011111
1000110000
1111111001011110
1111111111000010
1111101111111100
110001010
1111110110001100
1000001000
1111011101011111
1111100000010010
1011101010
11000110111
1111111001011111
10101011
1111111001011111
101001110
1111101111101001
1111011101001010
1111101000101100
1111111000111110
11101
1111110000110111
1111100101110010
1111001100110110
1110110101001100
1110111100011111
1111111001000110
1100100010
1110111110
1111111001000111
101010010
1111100100111110
1111110110000100
1110001111
100000111110
1111101000001101
1111011101100000
1111111111100111
1000110111
0
1111011011111100
1010001101
1111111000100101
1111101001101000
1111100111111100
1111100101011010
1111011011000111
1111100111101110
1111111000000100
1111111111100101
1111100111101100
1111001111000001
1110100111100010
1111100011011011
10001000101
100100101100
11011001
110101111
1110000111
1111110010000011
1111110001000100
1010111000
10100000001
1111011000000010
1111101011000001
11100110
10101110010
1111110000001101
1111110011110000
11100010011
110100000
1111101101111100
1111101100011110
111000101
1111110110010110
1111110010101001
1101110001
10100001001
1111110101101000
1110101111000111
1110111101001010
1111111010000011
101000001110
10111111010
10110000110
1111111101101010
1111101100011111
1111111011100111
1111100001101100
1111101011010011
1001101101
1111000011011100
1111100010010000
1001001011
1111100110001001
1111110111110010
11100110
1111111011011011
1001000010
1111101011111100
1111111100000101
101110111
1111111110010000
1111000011
11010100010
11110000111
1111100110011010
1111000110010000
1111100000010000
11110110001
10111111011
10010011011
1110010000
1111101100101110
1111011001101100
1111100010111110
1111010000000000
1110110011000010
110111010
1010000001
100110010100
101010110
101110101010
1111110110110010
1111111100000101
1111101100110001
1111101110111111
1111111100111000
1111111001110010
1111111011000101
1111111100011100
10110011111
101100100111
101111101110
1111110011001010
1111000011100001
1111101011010000
1101011010
10100001010
1011110010
1010100111
10101
1111111110010111
1110010010
1111000101001110
1111100100000000
10000011110
1101101
101001111001
1111110110101101
11000101
1111111101111001
1111110111110110
1110110
1100000100
1111001100
101110110
101011001
101110011
10110110010
100000100100
110110111
1111011000111001
1111000011011011
1111101001100111
1101100
101000100
11110110111
1001001110
100111101001
1101111000
1110010110
1111110110000101
1111101100001011
1111110100111110
1111000011100101
1111110010101101
1111110010111010
10000001101
1111110011011001
1111111000001011
10010010010
101111011110
1111111101011000
1100110001
1111001101
1111101011
10111101111
1000011001
1111110011001010
1111100010010100
1111011101111010
1111110110011100
10110011000
10111001111
1000010000
10011010011
11011001010
1111111111010101
1101110111
1111111111000010
1010100100
1111101001001000
1110111010001011
1111011001101100
1001100
1111100110111010
100001101
11111100
1111111011001100
1111110101001100
10010101
10110010011
11000110011
100011001
10011000000
1111111001111000
1111101000110010
1111101010001010
1111110010000001
1000001011
10111011100
11010000100
1010010
1101111011
10000000011
1111111100110100
11010000001
111010011
1111010110001000
1111011010101110
1111000010110011
111001000
111101000
101001111
1111010010
1100100111
1100001
100111
1100101101
11000100111
1010111111
111000010
1111100000110010
1111001110010110
1111011100101111
1111101100111110
110001101
11000011010
1101010010
111000000
1010111011
10011001110
10110100010
100001011001
10001010001
1111101010011000
1111100010011010
1110111100110110
1110101100010110
1111011100011101
1111111100111001
1111110001010000
100011111001
10000000101
11000000001
1100000100
11110100000
1011000101
101101010
1111101110001011
1111100111001010
1111011111000111
1111011011001110
1111100111011100
11001
10101010
101110001
11001001
100010100111
11111101
1100110111
11110111001
1111101011010110
100010000
1111111000011000
1111100010110101
1111001111011011
1111010010100111
1111110010010110
1111110110001110
100001110011
11010001010
11101000
1110101010
11111100010
1111110111
1111111010111001
1111101000111111
1111101010010100
1111100100111000
1111110111000100
1111111111100011
11110101
101100001
11011011101
1110011001
1000001010
10110010000
1110101010
100101100111
110010
1111110101101101
1111101111110101
1111001101101100
101001001101
11100011100
11100000
1111100001101110
1010101111
101100101000
10001000
10011011011
101101000001
1000010101
1111111000111010
1111100011011000
1111011111011100
1111011110100100
1111010111010000
1111101111001001
100100011
1011100010
10010001101
10011011000
1111110100100111
1111110100010111
1111111111101101
1001000101
1111001010111110
1111010100010001
1111010101110100
1111100000000100
1111110011010010
10011001111
1111111011011001
1111011111100100
100011101010
10000111011
1111100101100111
1111110110000001
1000001101
1000001001
1111110000101000
1111011101101010
1111011100010000
1111010110110110
1111101110101011
1111100110110101
1111101100000011
1111111011011111
11101110100
10011000110
1111111001
1111111110011001
1111011110011111
1111110111110001
1111001100101010
1111001000001111
1111111001111100
1111001111101100
1001010001
1111111110101100
1110000
1110100111
101100111
1111000100111100
1111110110111011
1111011010001111
1111010001101010
1111100010110011
10001101001
1000111101
1111110110110111
1111111011110011
1111110010100101
1111100101101000
1111100011011110
10011
1010101111
10101001011
11011110011
100010011011
1001010011
10111101
1111110110000000
10010101
100101001100
1111110011100111
1111011010000111
1111111101011010
1111111110010100
1111111101000010
110010000100
1111010000001110
1111001010101011
1110111010100110
1111001110110111
1111011110010111
1111101110101100
10010101
111111
1111111011000000
1111011110001111
1111100101100111
1111101001000110
11110101
10001101010
1010101000
100111011
111010010100
101000010111
11111000011
10011011110
10101
10011111111
11011011
1111101010101111
1111111010111111
1111111011100010
1111001
1111101011100111
1111111011101000
1111100100101101
1111010101000100
11110100110
11000100011
1111111001010000
1111111110
1111111011110101
1111110000001111
1111100010101110
1111011101011101
1111110010101100
1111111101000000
1100
110101110
1110001
100000111000
11010000
1101001101
10001100101
1011000101
10111010111
11001101011
10001011
1111111100001000
1111111111111010
101001110
11110110110
1110000101
1111011111111001
10000110000
1010000
10010101000
1101000110
100011101000
1100111010
1111111100001111
1111111100101101
111111000
1111111101000111
1111110111111010
1111111001010010
1110011
1010111101
10100
1111111011111001
111001100
10111001111
11111111110
100100101
101010110101
11000110100
100110111
11100111
100100
1010000100
100100000
1111010011001110
1100101
101101101
1000111111
101111101
10011001011
10100010010
10010000100
111010111
1111110000001001
1111100111100101
1111110100111111
101011011
1111101111001110
1111110011100101
1111011000111100
1111010001110110
1111100011000010
11000110
100101110111
1111111000111101
1111101110010000
1111101001110101
1111110
1101110
1111111101101000
1111000
1111110110111000
1111011000010101
1111101011110110
1111100100110101
1000101110
101001011
1111111111000011
1111111000010100
101100111
101110011
1111110000111010
1111100010001001
1111110001110011
1111110001111100
1111100011001001
1111000000100000
1111001100010110
1111001100101111
1111001111111100
1111100010011010
1111101000101000
100000110110
1110010100
10000110
10000101
1010001
1111111010101010
1111111101110010
10000001
10001111111
110010101101
1111100010001100
1111110010010010
1111110010111101
10001000011
1111111101110111
1111100010101110
1111110111010110
100110000011
1111101011011110
1111101101000111
1111110100010000
10101111100
1001001
1100011101
10100110
1100011111
10110000100
101000001110
1010101
1111111110101100
1111111101100001
10100010
