11010001
1111111101111001
100111110
110001
10011110
11110000
10100100
1111111011000000
10101101
11000100
100000101
1110000
10111111
1110011
1111111101111000
1111111001111000
1111111011001011
11100001
101001000
10000111
100011101
100010000
1000101
1111111101010110
1111111101011110
1111111011101011
11111111
1111111101010110
1000101
1111111101100011
10101110
10010000
1111111110010011
1111111100000100
1111010111111110
1111011000101001
1111011010001111
1111100010011111
1111101010100011
1111110101000101
1111110010101001
1011000
101010110101
10111011
1111100000111111
1111100010001110
111001011
1111110111000001
1111101100101000
1111110111010100
1111101011011001
1111101110110001
1111111111100001
1111111100100111
1111111111001110
10101100
1111111100111000
11101010
1111111101101011
1111101100000110
1111111001011001
1111101111100000
1111001001001001
1111101000000110
1111011110110000
1111100010111001
1111100011100111
1111110101101011
111001101
1111110001100111
1111010
1111111101101111
1111110111001011
1111100001111111
1111101011010111
1001000010
11000010010
1111010110111000
1111110001011011
1111100010000100
1111011001011110
1111101101011110
100010
11110000
1101110
1000010
100110011
10010010111
11101000110
1111101001111001
1111001010001111
10010101111
1111011001100101
1111111111011110
1000110110
1111010110011000
1111011111011010
1111010101100111
1111101001111001
1011001110
10110100001
1011000
1001111011
1100011101
11001100001
110010110
10110001110
1111100100110000
111110111
1111111111010110
1101010011
11000010
1111111100010001
1111111110110100
1111110100100001
10001010010
1111111001101011
1111111010100010
1111001001100010
1111110100111100
1111101100110110
1111110001010000
1111110101101001
1111101111100100
1111100111001011
1111100000101001
1111110000011101
1111110001110001
1100011111
111100011
100000100
1111110010001001
1111111011011111
1111111110110111
1111110010101011
10100001011
1010011000001
10100111101
1010010100
1000010
1111111111000110
1111111111000111
110111101
110101000
1111010011000110
1111111001000101
1111111101101111
1111110101001001
1111011100100001
1111101100001110
1111100001011010
1111100111111111
1111111001000110
1111111010101001
1111110110110110
1111101111010111
1111011110100010
1111101111011101
1111111001001010
1111111010001011
10111100
1111110110100011
1110100100
110111110
10111111001
101110101110
100011110100
100101000
10011100
1111110110000110
10100011
1111101000100101
1111101111111000
1111110011110000
1111111000010100
10110100100
1111110111110000
1111100101110111
1111011001100000
1111110111011010
1110001
1111111010010001
1111101101010110
1111101100010110
1111100111111111
1111100100001110
1111111000001001
1110101001
10001011001
10000100111
1111111111001001
1111110100001111
11100111000
1010001010000
110000010
1111111001111010
110111100
1111111010000101
1111110101111010
1111100110101011
1111011101111111
1111101111010111
1111111011010111
10110111010
1000110
1111111110110011
1111110001110011
1111101011000111
100011
1111101100001101
1111101011101100
1111111010001101
1111111111110000
1111110000001101
1111111011010001
1111111110001000
1111110001001100
1111101110101011
1101110100
1111111110010101
1111111110101011
1101011101000
10000101
1111110000010110
1111101010000101
1111001101001011
1111100000111100
1111110000111000
1111110001000010
100100010
1110001001
1001000
1000100011
111101
1111101010000101
1111100010101100
1111101100110111
1111101010011000
1111011010011000
1111111010001010
1111111111110000
1111110011010100
1111101100100000
1111111010000000
111001010
110000000
1111111001001010
11010101
1001100011
100001011100
1111111010101101
1101001010
1111111110100001
100011101
1111101111110100
1111101110111000
10001000110
1101000001
10101
1111111000010101
1011100000
1111110000100100
1111110110000001
1111101001110000
1111100010011001
111001
11101110001
11000011011
1111110000011111
1111011111101100
1111100111110100
1111111010010110
1010001000
10011110001
1111100000100010
1111101000001111
1101010011
1110010110
10011011
11010100010
1111110011011010
1100100101
1111111111110001
1100000111
111011110
1011111111
1111101110101011
1111100111011000
1111101001110100
1111110001001110
1111101011001110
1001101110
111110011100
1101111100100
10010101111010
1000111001011
1111110100101101
1111011000010100
1111100100101010
1111111011000010
1111111100011001
1111101111110010
1001010
100010101100
11111
1111111101000101
1111111111111010
1000110110
1100011000
1111011110011010
11000010100
100110000100
100010100011
100100011010
10100100
11000001
10001101100
101001110111
1000100101000
1011100001011
1111111100001
10011101100101
10001011100110
1000101010000
1111111010100111
1111100010110111
1111101111010110
1111110011111110
1111110100110001
1111100111100011
1010111001
1101000
10010110010
10011100101
100010101101
100101101001
10100100111
1111111111100001
11111110101
1000110111000
111101100111
1000101111111
1001101111110
1100110110110
1110011100001
1111000010100
1101110100000
1101001000101
1100001001001
1001110001001
1000101101110
100110110100
1111111111010010
10111001
10000101
1110010010
1001011111
1111110011001010
10011011100
101001010000
1000000111
10010100
11001110100
100100011000
1100010010
1111111110101001
1111111010111111
1001011011110
1101101000110
1110101101001
1101001100010
1110110110100
1011110011110
110101001100
111101001100
11010010110
11011100111
100010111100
100100111011
11111011100
11011000101
10101101011
10000011010
110100001
100101010011
1111110000000100
1111111011000000
1111111110010110
1001100110
10000000111
10001110010
100100101
1011001010
1001100011
1001111010
101011101000
111010110100
1000111011000
11011101010
100110111
1111111101011001
1111100010011001
1111101000010010
1111110110010000
10101110010
11000100101
10110101000
100000101010
101010110110
10110001010
101001011
1111100100
10110111111
1111111110111011
11001000
11000101101
1110111101
1111100100010011
1111100110101011
1111011011101011
1011011110
1011110101
10101011100
100010101111
11001100
1111110011001110
1111110000000010
1111011111100001
1111010001100101
1111010110011001
1111100111011000
1111111101010001
1101011100
110000
10011101000
10010100010
100001000001
1111110110111011
100110
1111110110000001
1111110100110010
1111100000111001
1111111011001110
1111101000011011
1111101001100111
1111000001000110
1111010101100001
1111010011100110
100011
1111101011000010
1111111101001000
101010101
1111100011001000
10010000
1111101100111110
1111100110100111
1111100111001111
1111100110011010
1111110110001001
1111011
10001011
1111111100001101
1110001000
11011010010
11010001000
1111110010110110
1000111100
1111100101000101
111001000
1111101111010100
1111100110000011
1111110111110011
10011000
1111010000011001
1111011110000110
1111001010110000
11100111
1000000000
1111110001110100
10011001110
1111010000011110
1111110111001001
1111110100010010
1010110
1010100
1111101011100100
1111111110101101
100100110
1111111110101010
1111111111111110
10010000101
100010010000
11001010011
110000101
10011001100
10111001000
1111111010
11100000000
110001001
1111111010100000
11011100110
1111011101000110
1111101011111110
1111001001000000
1111111111101100
1111111110011001
1111110000101100
10001010001
1111111101110001
1111101100101100
1110100
1000100101
1111101010001100
1111110001111011
1111111011101000
100011001
1111110100101011
10111111000
11111011000
101011001100
1000111011
1110111000
1001010101
1011100110
101011010
1111111110010111
1010010100
111000
1100100110
1111011110011101
111000000
1111100100010101
10111011101
1111111000010000
10011001111
11001101110
1111111010100010
10111011001
1001000000
111
1111110011001111
10011
110111
11011100
1110111111
10100111100
11111110101
11110110011
10100010100
1000010100
10011001110
10010110111
1001101000
1011110100
1111110101010000
111010110
10100111111
1111111111011000
1111100000010011
1111111100101111
1010011
1111111001001000
1111111100011001
1111010000010001
1111111001001100
10011010111
1111110110111000
111001100
111000100
101010001
111100100
1111110010010100
1111111111111010
1111111101110100
10111111
101110001
10001110111
1100111010
100000011110
11010011011
11000000110
10100110110
101010011000
11000101011
1111111001100011
1101011
1111100101111111
10110100000
10001110000
1111101010101000
111101011
1111011101000010
11100100
101100010
1110001111
10101111011
101000110
111001011
1111111011001000
1111111111111001
1111110001000111
1111110110111111
1111110111011111
11101101
1010001110
1000110001
1111110110100101
1111110110000011
1001101101
100000001010
10010100100
1010111
1111100011000111
1111101101011010
1111010001000111
1111101110010110
10001000001
1110011010
1111110110111101
11000111010
1111110111101001
1111110000100011
1111111001010100
1111110011110101
1111111001100111
10001010111
1111110
1111110011110011
1111110011000101
1111111100110100
1111111010001110
110
1111111000001010
1111110110100111
1111111101000111
1111110110010000
1111110111111110
1111110100000010
1111011010100111
1111110001111001
1111111001111110
1111110110011111
10001110001
1111100111110101
1111111101100101
11001011
1111110001111011
10010101101
1111111000001001
10111
1111111110111011
1111101101010110
1010011110
1111111111010100
1001101101
1111101100010000
1111101001111111
1111101110111011
11111001
101000010
1000110011
1111111011100110
1111101100101001
1111101000111001
101001101
1111101010101100
1111101101000101
1111100011011001
1111110111001100
1111110101101110
11101110101
1111111111000011
100000111
1010010
1111111100110010
1111111001000110
1111010010000001
1111111100001001
1111101111001011
1111111001111000
1111101011001000
1111111011000111
1111110101111100
1111101000010110
1111101001110100
1001111100
1001001111
110110
10001111101
1101001101
1111111011100111
1111111010100100
100001100011
10101001001
10010010100
1111110101111001
1111101001010010
1110111111100011
1000
1111111011001001
11001011
10100000
11111110010
1011010110
1111001011101010
1111110011111110
1111110100110110
1111011100011001
1111010000001000
1111010000011100
1111100111100100
1111011001100110
1111010111111100
110001100
1111111111000010
1111110101000011
1111110101001010
11101010
1111110001100101
11110110
1111101001011010
110000101
1111111011110011
1001111100
100010111
1111110000100000
1111101010100100
101000000
1111111010111100
1111110
100101101
10011010
1000001100
10110110110
1111000110
1111111011011101
1111100111011010
1111101001010011
1111010010110000
1111010101101110
1111011101110011
1111100000010010
1111000011100010
1110101011111001
1110101111110001
1111110000000111
1111010101000011
1111101001101011
1001110011
110000011100
100101110100
1000100110
10100111011
1111101010100100
1111111011011111
10101110
1111111100101100
1111111101011010
1111111011001110
1111111110011000
1111100101010110
1111100011100100
1111011100111010
1110111111101000
1110110111100110
1110101001000110
1110010110110100
1110100010110000
1110110001111101
1110101111011001
1110110101111000
1110001100110111
1101110101100001
1110111001010101
1111011000100111
1101101000
10000001001
11111010101
10110101010
1111111001001011
10
1111111100000100
1111111111100010
1111111111111101
