10100001
1111111100101101
1111111110000001
1111111110111110
1111111111001110
11100001
100000101
1111111100111101
1111111101000011
100000001
1000011
10100001
1111100111011111
1111100001100110
1111110000101000
111001
1111111110000111
100011100
1111111011111101
1111100
1111111100101101
10100000
1111111100010110
10100010
101000100
1111111101100000
11100001
1111111100010000
10010101
1111111011010000
100010100
11000001
1111110110010011
1111100001100000
1111011001100100
1110111000000110
1111000101001010
1110110011000010
1110110111000000
1110110100001100
1110111110001010
1110111101000101
1111011110010110
1111000110100100
1111100010100011
1111100001001011
1110101100101101
1110110010111111
1110110100011001
1111011000101111
1111101000000011
1111101111011101
101001101
1111111101110011
1111111110100100
101000001
1111111011010101
1111111110101110
1111110111101100
1111100101101111
1111010100011000
1111000000010101
1110111110010110
1110010011100010
1110101001001010
1111001011100001
1111010101111000
1110100011000111
1111011010111000
1111001111010110
1111100101011011
1111100111101010
1111010010101010
1111101001000101
1111100111010001
1111010111101000
1111011110001101
1111101000000100
1111011011011001
1111101001110101
100101010001
1001010000
1001101
111111
101010011
1111111010110110
1111111100000000
1111100111000011
1111001110100100
1111100111011100
1111101010101110
1111011001001100
1111100110011010
1111101100110001
1111011101110100
1111101100110101
1111100000100101
1111100110001001
1111101110101010
1001111000
1000011100
1111111111100011
1111100111110100
1111100000110010
1111100110010111
1111110100011011
10101010
1111110001000111
1111100001011011
1111101000110010
1111100111000001
1111111011010001
1111111101110001
1111111101101111
10001100100
10101011
1111101100111101
1111110011010011
1111110001001111
1111111010100010
1000011010
1111101111101010
1111101001110001
1111100111110111
1111111000000011
1001110
1010011010
1111110011001001
1111110000011110
1111101000111010
1111011010001010
1111011101000101
1111100001110000
1111010011101101
1111101011000001
1111011110000001
1111101000100111
1111110101101111
1111110111000101
1000110010
1111111011100010
1111111111011011
11010101001
1111111001011111
10111110110
10011010111
11100010
101101010
1111110001000011
1111100010001111
1111100011100010
1111100110010001
10001010100
100100101
1001101010
10011011100
10000111101
1111111100011110
1111101100110001
1111101011011000
1111110010100111
1111110011100001
1111101010111011
1111111000101011
1101011100
100011
1111100100001101
1111111010100000
1111111100001001
111110001
1010110001
10000011
1111101111011000
1111110110011101
11111100
1111111100101100
1111101100101110
1111111100110001
1111101100001110
1111100110011011
1111101111011011
1111101011000101
1111101110000001
1111111010100110
1111111100101001
111010101
1111110101111011
1111100110110011
100010011
1111111011100111
100110111
101101010
10100001100
1010010011
1100010001
1111110011000001
1111111100101111
10000101011
111011010
1111101100110110
11100011100
1110010001
111000
1101001001
110110
1111111000111001
1111101001101011
1111101000011001
1111100000100011
1111101111100100
1111101100010011
10010010111
1101110001
11111011000
100010101100
11101010010
10111111111
1111011110
100110111001
110001100110
100101010100
11011101
110100111111
1111100111100111
1111011100110000
101001101111
1111100100110111
1111110000110101
1110001111
1111110111000010
100000110
1111111011110100
1111111100001100
1111111010000011
1111111110000010
1111101001111010
1111101011110000
1011100000
1111111110110101
100001110100
101001000011
110001111101
100010110001
110011110010
100011111110
100100110000
100000011011
100100100010
100011010111
10110110001
110001101110
10111010010
1100111110
10000011110
1111011101110111
1111100011
100001011101
110001000
1011011111
1111111101000111
1111110100010011
1111111101010110
1111100101110010
1111100010100101
1111101010110001
1010001
1101001001
11001011011
101101110011
11110000110
100010010101
100010110101
1111100010
11001001000
1111001100
10001011111
1111111111111111
1010110111
1000001110
1111110110011010
10100010100
100010110011
1111011011001011
11101000010
11101000000
1111101011101011
1111101010000000
1111110011111111
1111111110111001
1111011111100010
1111101000000110
1111101100001110
1111101110111001
1111111010110111
10001000111
101110110
1000110101
1111110011100001
1111111000110111
1111110000010001
1111111111011110
1111101010000111
100011101
100110110
1111111110011010
1111111101011100
11101001101
11000110010
1010101000
1111011011100100
1111101010010001
100101011101
1111111111101001
1111110011011111
1111110100111011
1111110000001001
1111111100010111
1111110001100001
1111101001100100
1111101000000110
1111111111010001
1111111001101010
100001110
1111110110110110
1111101001010110
1110110111101010
1111001001100001
1111010111001011
1111101110110111
1111110101011111
1111110011111100
1111110111000111
1111111000110101
1100010100
1100110100
1111110111101101
1111110111010011
10100100101
1111110010100001
1111100010010000
1111110010011001
1111111010010100
1111100101010111
1111111001001000
11000010
1111101000010100
1111100111010100
100100
11100010000
100010110001
10011011001
100100100
1111111001100101
1111100111001100
1111100101010000
1111100000011011
1111100000001100
1111110100101100
1111101011011011
1111011111100100
10000100111
111001110111
11101101110
1010001
1111101011111110
1111111010000100
1111110110100100
1111100110010110
1111110101100111
1111111111110000
100001001
1111101110101101
1111111010111111
1111101111100010
1111101001101011
11100110011
100001001101
10110010110
1100011100
1111111111001011
11000000
1111111111010011
1001011111
1111101000101100
1111101001000011
1111101101111101
1111011100000101
1111110000111110
11110111000
101111111010
111000111110
111010010
1111100000010100
1111110011011001
1111101010110111
1111111010001010
1111100111110100
1111111110110010
10011000
10011101
1111110010101010
1111101010110100
1111111000101101
100110011011
101111010011
100001110110
11100111110
100001000
100111110
1010111010
1111111011100110
1111111111010011
1111110011000000
1111101000110001
1111110110001111
1111100001111101
1111110111011111
100110001
101110011000
101011000110
1111100110001110
1111100110010110
10
10110001011
1111110101001010
110100
1111110000010011
1111111010011110
1111110111110100
1111110110111110
1110001101
100100010101
11111100101
100101110001
100111101101
1011111111
1111100000
1110010
1111110011010001
1111110011101101
1111111010000001
1111110100111101
1001001010
1111111110110010
1001101
1111101010110111
101000011001
111010001111
111011010
10001010110
10101001010
11100100100
1111111000000000
1111110101110000
1111110110111001
1111110001000110
1111110011100110
111111000
100000110010
11100101111
10001101001
101010011000
11111011100
11100101100
101000010110
10110011110
100
1111110011001110
1111111111000101
101001011
111011100
100101010
1110111000
1111111110001111
101110110000
1111110111010110
1111111011000111
1111111000001100
11100110001
101000100
10010000010
1111101000110111
1110101011
1111101011010101
1111110001000000
1111111010111110
1111110111011101
110101001
101111101
10101110000
11010101111
1101011101
11011110010
101101100
1111111100010000
1111101100100100
1111111001000110
1111111001000110
1111111100100100
10001101010
1111111110110100
10010001110
11100100011
1111101000000000
1111111101001100
1111111011101011
10010010001
1111111111010101
1000
10101110
1011011110
1111111100010111
1111111011000111
1111110010000111
1111100100000101
1111110100101010
1101011101
101100100010
100000011010
10111101000
10100110101
1111111011101100
1111110
1111111111100001
1000111
1111111101001010
1111010000
11110001000
100001111
10011011011
100001010111
110011101111
1111111010001110
1111101001110011
1111011001000101
1111101110110110
10000110111
11001010100
10000001
111110111
1111110110111001
1111110010110000
1111110101010111
1111100111100110
1111111100010100
101001001011
11110001001
11110000001
10111101010
1000101101
1111111110100100
1111101111010011
1111110101111001
1110011001
1111110000
1111111100000000
1111111111110010
1111111001101110
1000110101010
100010010100
11010111
1111011100000111
1111111101110100
11100111010
1111101101101011
100110011
1101111101
100001001011
1111111101111010
1111110110110001
1100101
1010101100
1100111111
1011000000
1101111011
10100011000
1111111001110011
1111111001010011
111100
1111110100001001
110110011
10111000010
1111110111111010
1100110101
11000000001
1111101000010101
111110000110
1111110010001100
1111111010011001
11011101100
101000000111
11000101010
1111101101111101
1110010101
1111111101010101
1111010110
100110100
1001000000
1111111110010000
10100100001
10101010001
101101011
1111111100110010
1111111111101111
1111101011001001
111101011
1010111100
10100100100
110111011
10110111000
1001000110
10100011010
1111011110001111
1111100001111010
1111100110101101
1101000
1111111100011111
1111111001111010
111001101110
10000001111
101000000001
11010000011
11011111001
10001001111
11000001000
100000111011
11000001000
101010110111
101110001101
10100011111
1111110001010100
1001010100
1111101110111100
101000100
1111110100111101
11010001
11100110
10100011101
101101000
1111011110100101
1111101011000001
1111100101111011
1111100101011001
1100111
11010
11001001
11010110101
1111110001100111
10110110010
11111001110
10000011101
11011000000
110010100
100010110001
10011011010
100100010000
11000110101
1110011000
1111111101101110
1100110010
1111001100
1001010001
110111001
111111100
1111111000101100
1111101110110000
1000110011
1111110011101101
1111111101110000
1110110011
1111101101110001
1111100
1110101
1111111100011001
1111111101111001
1111101111011100
1000001011
1111111000010000
10101010010
1001110011
101111100
1111111000101010
101111101
100010011110
10010101001
111101111
100000100000
10101100001
10100001011
1111111010101101
1111110111011000
1111110111011100
1111110000000000
1111110000011110
1111111110011011
1111011010100001
1111100100011001
1000000111000
1111111101000001
101011101
1111111101101101
1111111100110000
1111101001011000
1111101100101000
1111111001100111
1111111001011011
10110101101
1010000101
110010111
1111101110001111
1111101010101001
101110
1111101101101110
1111010001111110
1111101101001111
1111110010111000
1111111010000001
1111100111110101
1111010110111111
1111011100111011
1111100110011110
1111000110011011
1110110111010011
1111010101011001
1110110001101111
1111101110010011
111110
1111111111110111
1111111101000111
10100111
1001
1111101110100011
1111010101100100
1111010110111010
1111100100011010
1111110011010101
1111101110110011
1111001010100100
1111010101001000
1111000001111000
1110111101001101
1111001110000110
1110101111011100
1110100101011000
1110110100111001
1110111111100101
1110111011011110
1111010100111010
1110110100111011
1110101111100001
1110110100010010
1111011000111011
10011001000
1001000100
101010011
1111111101000010
1111111111000000
1111111101011010
1111111011110100
1011000
11110110010
111100110010
1111111110011111
100111100110
110010001101
11100110000
1001001
1111010111111001
1111010111100111
1101110000
1111000011000111
1111010011011100
1111110100010011
1111011100000011
1111010101000010
1111010111011110
1111011001101101
1111001010010001
1111100000001110
11110011100
1111111111101010
1111111010110000
11111110
1111
