1111111101111101
101011100
1111111010111101
1111111101111001
1111111111110001
100000001
10000100
10110101
101011101
1111111011100101
10011
11001000
1111101011100100
1111101000101101
101010101
101010100
10001001
1111111010100011
11001
11010101
11010101
1111111011111011
1
100101001
11100101
1111111100110000
11011000
1111111110001001
1111111011000110
1111111110000111
1111111110101101
1010001
1111101110100001
1111101100110011
1111010001011100
1110111010101101
1111000101001011
1110100100100100
1110111111000100
1110100000110111
1110101110001000
1111101011110100
10000010101
1111001010010110
1111010100110110
1110110110100100
1110011010001001
1110110011001110
1110100110001100
1111001111001010
1111011000011011
1111010101000110
1111111101000010
1111111101000000
1111111110110000
100010111
1111111100100000
1111111100111000
1111110001001000
11100001
1111110101110111
1111010011110110
1110110000000001
1110011100101011
1110000010010101
1100101111001010
1101010000001000
1100100111001111
1100011010101011
1110011111110010
1111000101010111
1110111100010110
1111100001111101
1111110110001101
1111110111100000
1110001011100101
1111001101101100
1110011111001100
1110111101000100
1111001110010010
1111110000010001
11111011
10100
1111111110000101
10011100
1111111110000111
11001110
1111110000100111
1111111011000100
1110110000000100
1110100000010011
1110000000001101
1110011111010000
1101010111010111
1101101010110010
1101111011011001
1101110111011010
1101011100101101
1110000101110000
1110111101100110
1111001011110110
1111101110000010
1011100101
1111111100110010
1111110100101110
1100110001
1111111111111001
1111100001000111
1111000001110100
1111110010111000
111101
1111111100010000
1111111010110100
10000100101
10101000100
1101110
1111111010001110
1111011010101111
1111001111100100
1111001100111000
1111100111001111
1111000111011001
1111010110010011
1111101011110010
1111101101110010
1111010100001110
1111101010010000
1111110100111010
10100100011
11100110100
11110010110
1001101000
1111110011111011
1111111001110101
1111111100011111
1111111110010011
11100000100
10010101101
101100011000
1111110000001011
100010010
1111111101110111
1111010100100101
1111101100000010
1001
1111111111111011
10100000001
11100111000
10000011011
1111101101101110
1111011101100000
1000000
1111111111111100
1111110010111001
1111110101100110
1111110000001101
1111111111000110
1010000010
10100111
1111100001100001
1111110101001101
1111111011001010
100000101
100111000
10100100001
100101010000
100111111111
1111111110110101
10110000
111010100
110100000
1111011110001010
10100001010
10001110000
1111101111100010
11001010001
100011001
1111111011110100
1011000001
11011101
1111110010001111
1111110000001001
1111111011010111
1011110101
0
1001110110
1111101001101111
1111100010101101
1111101010001100
1111110000100010
1001011001
11000011011
10101010111
100110000
110110111001
10101000000
1111111101110000
111001111
11101100000
1111110110011111
10000100
1111101110110000
1111111110111110
10111100111
1011001100
10110100101
1111111111011100
1111110110111110
1111101000011010
1111011100100111
1111010100111001
1111110001001111
1111110110101011
1111100110111001
1111111010100000
1111101110101000
1111111001111111
1111110000110100
1111111001111010
10110010101
11110001011
11001011101
100101100111
1101110011
1111100010011101
1111101111000010
11101110011
11010000111
10011101010
10010100011
11101001
1111111000011010
110010001
1111111110000000
1111110001011000
1001
1111101101111111
1111011100000100
1111011011101110
1111100010100000
11000110
1111101100100100
10000111100
1110000100
1111111101101101
1101011000
1111111110111101
111110101
101000100110
11100110111
110001000001
101110010000
11101101
1111101101101100
100001111010
10100011001
1111111011110110
1100111011
10100000111
110010001
11010111101
101010111
10010101010
10011101100
1001100110
1111110010111011
1111011110100110
1111111001100000
1111010110
11011010010
11010101110
1110110101
1010111100
1101111101
1111100001
11010001000
11111101
100010101011
10110011101
110011100000
1011011110
1111100000000101
1111110010010111
111110100
10111000
11100001100
1010110011
100010000001
100011100000
10100011110
100101001000
11101001001
100110000111
110010100
1111110001101101
1111101000100011
110011000
101000000
100011010111
10000011111
1111000001
110000100
1101000001
100101110001
1010111110
11010010111
1111111001100100
1111110110110110
10001011
1111010111010110
100101110111
11001000101
11100111101
101011110011
10011110001
100110001001
110110001011
11101000010
100000110111
1110101001
10000101101
10011101100
10100110110
11111101
110100011
10101001010
10011101111
1111101100101101
1010001100
1111111011011111
110011000
1000100
1111100001000111
1111111100110110
110011101001
1111111100101010
1111111011100000
111001010
11101001000
101100000
11001100100
11110000101
1100110110
100011000110
1110101001
1111111010011100
111000000
1111110110000110
10000010
11110010111
11000010111
10001111100
1000101100
101110001
1111111101101010
1111110111101010
1111111110110010
1111110110101110
1100100
1100010000
1111011111111010
10010
1000000000011
1111110010010101
101110100
1111111010001111
1111101011111010
110010011
10110111101
11010010010
100110101
1100010010
1011000000
1111111000110100
1111111100100111
10001000
1010011000
101000101111
11101000001
1111110001
1001010111
10110000
101011100
1111100111001010
1010011101
10000111
1000000011
1101101100
100100110
11010110100
100101110100
1111110100100110
1111101111101011
11111100110
1111100001010000
100010011110
1010101000
10111
111101110
1111101010110101
1111110111101110
1111111100000010
100100101
1011011011
100001011100
110100011001
11111001000
11011110000
111000010
1011001110
1111110011010110
1001101011
1010100101
1111111111011000
1111111101011011
11101000011
100100000000
11011101110
1111110001000101
1111011001001000
1111101110110110
11110100000
1111110010111100
10100010111
1111101010011100
1111110011101101
1000100110
1111110101110111
10001111000
1110011011
1001011010
11001100100
11110100110
11001011011
100110001111
101000010100
10001000101
110111000
1011010101
10100111
1111110000110100
10101111
10101101111
1011000010
111010010
1111110110100110
111001
1111011100100100
101010111
101110101
1111110101011111
1111100000011100
1111100101111110
1111100001101110
111110101
1111110101011000
110011110
1111110100101110
1111111100111111
1111111100011111
101110100110
11111110100
100010101101
11000100111
11011000001
10000000010
1011011010
11000
1111111000001110
1010011001
1111111101100000
10000
1111110110100010
1111010011000010
1111111101100000
1111011101011011
1111111111111000
1111110010101101
1111110110010001
1111111101111000
1111011011001010
1111100100001001
1111100100111001
1111111101000111
1111110110001101
110000010
1111110110110000
11010
100111100011
110001001010
100000000000
100111110100
1111110010
111000111
1101000001
10010011011
1111110111100000
10010011100
10010100011
11101110100
1110010001
1111001110100000
1111110000001001
1111101100011000
100001101111
11000000001
11000010010
1111111011110101
1111011000000110
1111101010110110
1111111000000101
1111100101111001
1111100110101110
1111110011111111
1111111011010101
1010110001
10100101
10110010100
10011000010
101100000
1111110100001010
1111100111000011
1111101110111001
1011
101110101
1001011
110101100
1000110100
1111100101110100
1111100101011101
1111110101111101
1111100011010010
1111111001010101
1111110111001000
111011
1011101000
1111111010001101
110100
1111101101001010
1111110000101100
1111101100111000
1111011000001001
1111011101110001
1111010011100001
1111011111011000
1111010010110111
1111100010010001
1111011100101000
1111101101111100
1111010111010000
1111101101100100
1111111000110001
1111100111101101
1111111001000011
1111111111110100
1111110001100101
1111101100001001
1111100101111101
1011
1111100101001100
1111111011001110
10111010
1110110100
11010011010
1111110000101000
1111101010011001
1111100100101110
1111100111000101
1111100011111011
1111010111011100
1111010110001111
1110111111110000
1110110110100100
1111000111000000
1111010011010111
1111100101010110
1111101101000110
1111110111001010
1111101100001100
1111111110110000
1111110010101000
1111111110111011
1111100111011110
1111101001111011
1001010010
1111101101100011
1111100001110110
1111101001011001
1111110111100000
10010110000
11101111001
10001010111
101101100
1111111100110000
101100111
111001110
100110111
1111101110001100
1111010111010000
1111011111010001
1111011011011010
1111001011001101
1111011110011010
1111101001001000
1111101100101010
10101111
1111100001010111
1111101100001110
1111101111000011
1001111010
1111101001111111
1111101001011100
1111100111110101
1111011001011101
1111010000100110
1111110111100001
1111110101101111
11011011
1111110011010101
11011011101
1000111101
1111011011
10000001011
10000001001
10110110110
1000000000
1111101000010011
1111110100001000
1111101001011001
1111101100010000
1111101001110001
1111101001011001
1111110001000010
1111111111111110
1111101101011101
1111101010010001
1111110010010010
1111011011100001
10101101010
1111101100100010
1110110
1111011110
1111100110110110
1111111011101101
11101
11110001
1111111111101000
1011000000
100101101010
110101001
1001001110
11011010101
11010010101
1111110011010010
1110100
1111110010001010
1111101000001110
1111110100011000
10000110
1010111101
1000111100
1111111110100000
1111111000011000
10111110
1111110110110000
1111111110000011
1111110011110001
1111101111110100
1111110111111110
10000101001
1111101101000110
1111111010110001
100011011
1111111011110000
100011010010
1001111111
101011000
10111010001
110000000011
110110111111
10000010111
1110001011
11111110010
1111000101
10101000110
1101111100
1111100101101111
1111101001100010
1111110101110001
1111101001111100
1111100101001000
101010001
1111100111011101
1111011000101001
1111100000111100
10100000001
1111101011011000
1111000100011111
1111010111101011
111010
1111111110111011
1111111111111011
110000101
1111100110000110
10010110
110001111100
110101011011
101011010000
101110010010
11110100000
111110111100
11011111000
1000010100
100001011
10111000
10001010101
110100111110
111010110001
10101001010
101101011101
1010110000
10011100010
1111111100110111
1111110011001110
1111111101100100
1111110110101000
1111111101111011
10010001
1111111111010101
1111111101011000
1111111110110011
110010111
110010000110
110110111111
1000100100010
1010111100
1111110011110000
1000101010
1111101110110110
1111110101001111
1111100111100001
11000111
10111111101
1111111001000010
1111111011111000
110000000010
1111111101011110
1111110000111101
10011010011
101100011100
1111111011001010
100101001011
1101111111
1111111000101111
100010100
100100010
1111111101001011
1111111010111000
1111111110100011
1111111010111001
1111110101011111
1111110111100000
10001110100
10100100101
100111100110
11001110011
101010110010
100100111001
11010101010
101111110
100101000011
10100110111
1111001101
1110101010
100011000111
10111001100
11000001100
1001010001
1100101001
1111111011101101
100101000
1111111011011111
11011111
1111111010111011
