100011110
110101
100111011
11011000
1111111110111101
100001000
1111111011101011
1111111101010101
1111111100000111
1111010
100110
1010
1011000101
1011011111
1111111001011011
1111111010011101
1111111111111011
1111111110110011
1111111101100000
1111111011011001
1111111101010111
11
1111111101010000
100101001
1111111101010110
11010001
11000110
1010000
1111111100110100
100001100
1111111111101000
1111111110010101
10001110010
10000111010
11100000
1001101101
1111011010001101
1111010000100000
1111010100101001
1111010100001011
1111110101110010
101010100111
100000110100
1100011101
1111101110000010
1111010001110011
110101000
1111101100100000
1111111000011000
11100011
1001110100
1111111111000111
10001111
1111111011000011
1111111111010111
1111111110000011
1111111101001000
1111111100111110
1111111001111011
1111101100110011
10010000011
1111111111010100
1111110011011010
1111011101000100
1111000111011000
1110110000010001
1111000010001110
1111000000101101
1110101001001100
1111000110011011
1111001000001110
1111111110000001
10011000000
1111011100110100
101101000
1111111110
1111000110
1111101101001110
10011101001
1111111101011111
1111000110111001
1111101001001101
10110000
1111111011100010
1111111101100011
1111111110100111
11000111011
11100001110
10100110001
1111101010010010
1111011000010100
10110000110
1111111100100011
1111101000000110
1111010101100110
1111000011110101
1111010110001000
1111010011111110
1111001100001001
1111110000110110
1111111101100000
1111101000110101
1111110111011011
110111111
1110010110
1111110100101111
1111111110001111
1010101101
11000011
1101001001
10000010000
1001110
111001
1111111001111001
10100100
11000011110
1111111110110000
1111110100110000
1110101111100101
1111111111100001
1111100100111010
1111010111011010
1111100000010110
1111101111011010
1111111001111011
1111111111011100
1111111100110001
100
1111111010000111
1111110110100010
1111110101111111
1111110100000011
1111110111111010
1111111111010010
1111111001101010
11101000000
1101
1111111100110101
1111100101001010
1111101011001010
1111111101111001
1111111111100011
1111100100111010
11000011011
1110001011
1111111101011111
1111111010101001
1111111001101111
1111010111010011
1111001010001001
1111011110100010
1111111001001000
1111101001101001
1111110001011000
1111111100000111
1111111000110111
1111101100111100
1111110010010101
1111100011110111
1111100101111011
1010110101
1111111111110111
1111111100010001
110010000
100000010
1111110110110101
1001010
110000110
100110000
1111101011010000
1111101101111011
1111110110011010
1110000011
1111101110011010
1111111011000110
1111100010100100
1111001010110000
1111011101000101
1111100011011111
1111111011001011
1111110101100011
1111110110000111
110110
1111110110010110
1111100111100001
1111101111100011
1111110001011101
1111101111111101
100
1001011110
1111110111111001
10110011001
11111001000
100110000100
10111110010
11111000111
1111111110001000
1111010010000111
1111101111100001
101011010
1111111101000100
1111110111000010
1111010000001101
1111100111110011
1111011110000110
1111110001100101
1111111010011110
110010011
101010100
10101000
10000001
1111111100010000
1111111000010000
1111101111011000
1111110001000110
1111110000100001
111010000
1110111000
101010001
1001111111
1111111001011110
101011010001
110100101001
10010000101
1111101101011100
1111010000010110
1111100000101000
1101111
1111110111101001
1111011010110110
1111110111011000
1111110000101001
1111100000011010
1111100000110011
1111111010000011
1111111010001111
1111111011010001
1111001110
1100100011
1111110101010101
1111101100110011
1111110001011010
1111110000010110
1111111100110111
10100010110
1100110101
1111000100
1011001010
11110011111
101101000011
10010001000
1110011110
1111110101011000
11100100
1111001111110101
1111011111101110
1110111100000110
110111101
1111101111111101
1111111000001101
1111011000111000
1111010011101000
1111101000001111
1111111100010010
10010001001
11010010100
10100011000
10010110100
111100000
1111101101101110
1111110110010110
111111011
1010001000
1010001000
11110001101
10010000011
101000011011
1010101010111
1111101
10011011111
1111110010000111
111011100
1111011001011100
1111101010111110
1111011111100000
1111101000100100
1111101100000110
1111111100011111
110010
1111010011000010
1111101000011111
1111111111010001
101101101001
101010001100
100010101101
100110110000
1000001010
1111100111110100
1111010011100110
1111010110001011
1111010101010110
1100100000
10100100110
11100000011
111011101101
110100101001
111111101001
100111000000
1111101111011101
11011110
100001110111
1111110101010001
1001101010
111110
1111100101111111
1111101101011011
1111011101111100
1111001110111000
1111100111111110
1111100111010110
11011010
11000010
100000111
1010110111
1111110111001110
1111011000000001
1111000101010010
1110100010101001
1101011101011111
1101111010101001
1110110000000111
1110111111000111
1111100101111100
110100000101
110110001111
101111100111
1111100
1111010100100001
11010111011
1001101100
1000000111
1111011101000011
1111110110101010
1111100100111001
1111101110111011
1111010001100101
1111011111000110
1111111111001001
10110001
1111110011111110
1011101000
101100100
1111101010000100
1111110000100000
1111100000110110
1111010110011011
1110111011100101
1101011010100010
1100101010110011
1101100011001010
1110101111110001
1111000110010010
1111101110111110
100001101101
10110010001
1111100101111110
1111111000000000
111111110
1111011
1111100101101010
1111110100010010
1111111011001010
110010100
1111101010111001
1111111101010100
10111010
1111111011100111
1111111100100100
1010110100
1100011000
10101101
1111110101111111
1111011101000110
1111110101100011
10110011011
1110111110000101
1110000111101110
1101111111100110
1110000000001111
1111011110111100
1111100000001100
1111110110110000
11110000101
1111111110010110
10010011100
11010001110
1111110101010010
1111101000111110
1111111101111101
1111110101011011
1111110011011000
1011111100
1111111110100000
1111011000010000
1111100111110010
11000001
10010010
1111111101011101
10010001
1111110111100101
1111101010111000
1111101111101010
1010011010
1111110101111010
1111011011101000
1110110001011111
1111011010000000
1111111100101001
1110001
1111101010011000
11100101101
10000011
1011001100
11101011100
11010111
1111111000111100
10010011000
1111010010
1111111100001111
1111111001101010
1111011100001000
1111010100001100
1111100000100000
1111110001000100
1011010111
1111111110111001
10101100
1111100010011000
1111100111010000
1111110110000110
1111101000101011
11110101
1111101101000111
1111000100000011
1110111110110000
1111001001110111
1111010011000101
1111011000011001
1111110111110011
1111100001100011
100110110
1100001001
100000100
1010001001
1111111110110111
1111111111001000
1111101110010010
1111011001110110
1111001111011001
1111011010010010
1111011101101111
1111111101100111
1110010110
1100010000
1111110111001010
1111110000100000
1111101111100010
111000001
101010100
10110011111
1111110101100100
1111011010001111
1111100010010011
1110010001010101
1111100110000100
1111101101011101
100101
1110001101
1111001011011101
111101011
10111110101
100011101110
10000011011
101010001
1001011
1111110001001000
1111110100100001
1111100010011011
1111100110011010
1111100111
101100110011
100010001100
1111111010111101
101001101
1111110111010100
1110001110
1111111010100000
1111111010001001
10000010
1111111001100011
1101100001
1111100101010001
1111110100100110
1111101001110100
1111110011010000
1111111101101111
1111010111111010
1110000000
100010111
10111111001
10001111
1110000111
1001011001
111000101
101010
1111100111010111
1111111000110101
10111010001
110011000111
11000000001
110101111
1011100010
1111110111010000
1010011100
1001111001
110111101
101011010
1111101011111011
1111100010001000
110011011
1000000000
1111111010101100
11111111111
1111110101111100
11011011111
11001101
1111110000111101
1010111101
1111011100
111
111011101
100101111
1111101110001001
1111101111010110
1111111111111111
11000010000
100001110000
11000011101
11001110100
10111001
1111110011101011
1111110000110101
1000100111
1111111010101111
1011001100
1101100111
1111110001011100
100101110111
1111110110000111
1010001111
10110111
1111011100010000
1011000010
1111110110111011
1111101001101001
1101001111
1111111101000010
1101101
1100100100
110111110
1111101011111010
1111111111000111
1111111001101100
101001101
111100101
1111111100101101
11100101001
10101110100
110010010
1100101101
110010111
1111111011100101
110010000
1111001110001011
1111111111100000
111111101
1111111001010000
100111000110
11111110000
1111011111000100
1111101001010101
101111011
1111110110100011
1100101000
1111110100101100
10000101111
1111110101010110
1111111000011011
10000001
100100010
1010011
1111111111111101
1101000001
10010111000
1010001010
1011011101
11001101
1001100000
1011001111
1010001010
11101010
1111001011101111
1111111110100010
1111110110001011
1111101111001001
11100001
11000101000
10111010000
1111101010010100
1110100111
1111110111110101
10001011011
1111110001100010
10001110
1100111111
111010010
1111110010010011
1111110101011100
1111111101100101
1111111001010011
101010001
1111111111010111
1101111101
1001000001
10001010001
1001111
1101000011
1111110011110011
1111110101110110
11001001010
1111111111100110
1111111000100011
10001011000
100001110
1111111100111100
10010110
1111011001111110
1111100110001110
1111110100110011
111100100
1111111000000101
1111111000110110
1111111010101010
1111111100111110
1111111101011100
1111101000100001
1111111110010001
1111110110001110
1111111101001011
1111111100000001
1111111111011110
1010110110
1111110111101111
1111100010100000
1111100001111111
1111110010001101
1111100011101100
10111110
1111100011000010
1111010010101011
101110101110
1111111110111011
1111111111100100
1111111111101100
1111001110011010
1111011101111110
1111011001011001
1111010010001111
1111100101111010
1111110101010110
1111110111000011
10101001
1111110110111011
1111101101000100
1111111001001010
1111110001110101
1111111100110101
1110100010
1111111100100100
1111110001010100
1111100010111011
1111100100101110
1111111100010010
10010001
1111101010000101
10111011110
1110000100
1111100111110000
10010110100
1111111111000101
1111111100111001
1111111110011101
11100001
111100110
1111011101101001
1111011001101000
1111100110010001
1111111101101101
1111111100000111
1111010010100000
1111010011110100
1111101010101111
1111101110011101
1111110111110101
1111101000110010
1111111001
1111100
1111100111101011
1111100111100011
1111010110101110
1111101100110110
1111111101111011
1111110111010101
0
11100010001
1111111000001101
1111110100101101
1111111111010101
1111111011110010
1111111101010000
11111
1110101110
100100000011
1111101011000010
1111100011110110
1111011011001000
1111010011001000
1111101011010110
1111010010110001
1111001000010001
1111011001111000
1111110000010111
10011010111
101000001011
11101101101
11010100001
1111111010101001
1111101011100001
1101110011
100100110011
1110001
1111011100100111
10110000
1111110010101010
1111111110010100
1011110
1111111101011010
1010011
1111111111011011
1111111010101001
1111110101101101
1111101111101111
11001010001
10000011000
11001000011
10010110010
11100010101
11110100011
100011011101
11100100111
110000011000
10000001111
1110011
110010011
100100110
10010100
10100000011
10111000010
111110001
1111110011000011
1111111111000110
11101100
10111111
1011010
