1111111100101110
1111111011100000
10010110
11011010
1111111011001000
100000
11111110
1111111110101001
1111111101000001
1111111010100101
1111111010101110
1111111100100011
10100101011
10100000110
1111111011011100
1111111111111100
110010
1111111101000110
1111111110110001
1111111011000011
1111111100000110
1101110
1111111100010010
1111111110001110
1110101
1101
1111111101110110
1111111101010000
1111111100001100
1110111
1111111100111011
1111111111111011
100010000
1001001101
101101100
100011001110
110110110001
1000001100111
1001111110101
110000100100
110100100101
111101011001
1111010101010000
1111001100001001
1110111111010010
1001001010
111011000101
11110001010
110001111
101011011011
11000101000
1000110001
100000001
1111111100101011
1111111101010011
1000100
100111001
100001100
1111101
1111111001011111
100100000111
100011000100
101011111000
1001110011001
11011110000
1111111111111011
1010011010
110010111100
1100000001111
110000011111
100110011101
1001101100
1111110100010110
1011101000
1111110010010011
1111110110100000
1111101110101010
111100110000
1010100110
11110111
11100110001
1111101110100110
1111111110111011
10011
1111111110101011
1001101
1111110111101001
1111100110011001
1111011101111111
1111111101000011
1111110000001000
1111001001001010
1111010110001010
1111100110001010
10111101111
1000010101101
100010100000
1111010100
1111110110110100
1111110100011011
1111000111
100001000
1111111110001100
101101101
1111110010101110
1111111011110001
1000010011
1111110110110111
1111101100011011
1111111101110101
10000101101
1111111101011100
1111111011010110
1111111010000111
1111100101110111
1111101010101110
1111101000100000
1111111110110101
11100000
1111111111101001
1111100100101000
1111110010000110
1111100100000001
1111111010000011
1111111000010111
101100000
1111110101111100
1111101110011010
1111110000001010
1111111111001101
1111111001101101
1111111110000100
11010011
10001
1001100100
11000011111
10010100100
1111111001010000
1111111100100010
10110011111
10001001
10110111
1111111001011010
1111011010001011
1111111011100111
1010110110
1111111011111011
1111011010110011
1111110110110111
1111110110000101
1111101011100111
1111011100100101
1111101101111110
1111110001011100
1111111111110011
100100110
1111111010110010
10000111011
10010001110
1111111
1111110100011000
1001110111
1111111001110111
101100001
10011001010
100010010
1111111000000111
1111000101
1111111100101001
1111110111111100
1111110100001000
1111111010101101
1111001100110010
1111011011101010
1111110001001010
1111011010011001
1111011011011000
10000000001
1111101101101101
1111110000100001
1111101111000110
1111101010100001
1111111110010101
1111110001011110
1111110000110110
1110000111
11001110011
1100111010
1111111100110111
1010100100
11001001010
1100010001
11010001
11001011010
10001000
1111111110111111
100110100
1100101000
10011100101
11100000
1000001010
1111111101011110
111110
1111111111011110
1111110110011011
1111110111110111
0
100001
1111111101010001
10001000
1111111011010110
1111110010011101
1111110100100100
1001110101
1011011101
1011011101
1000101111
101000110
1011011001
1011010110
1101001101
1111101101110000
11000100111
1111111000010100
1111101010111110
101111010001
100011100101
11111101
1011001
1111110101111101
1111110110110100
1010110111
1111101001
1011000100
10010111
1111111001001000
1111110011110110
1111110111000011
1111111100101010
1111111001000001
1111110111100100
10101001110
10001101010
110001000
1011010110
10011001100
101101111
10010100100
1110000001
1111010101000100
1111010011010001
1111000100100011
1000001000
10010011001
1111111000000000
1111101001001101
11101010011
1011001111
1111111001010000
1111110101000000
1111110011110001
10010000
1111110001100001
1111101011111110
1111111101010011
1111111101000111
1111101110010001
1111101100010111
1111010010
101001010011
110011001101
11011000100
100000000
1111111111100101
10010111101
110101000
10110100101
1111010100001000
1110011010011000
1111100000111000
10010000111
111110000
110111010
1111101011010000
10001111111
100110110
1111111110000101
1111111000110011
1111101111111100
1111111011110011
1111110010001000
1111111110110001
1111110011110011
1111110000010000
1111011111011000
1111100010001010
1111111101010001
11010001101
10011100001
1001001001
11101110
10010
101011100
1111100010110110
1111101100010001
1111010110000010
1110100000001110
1111100110001010
10010000100
10101011011
1001001010
1111111101101011
1111100100101111
101011010
1111110111010010
1111111110011010
10111000
10101010
1011111011
1000010
1111111100101101
1111101001001000
1110110100110100
1110111100100000
1111101000100011
1111111101110010
1111111010111101
1111111010110100
10000110
1011001101
11001110011
11000101101
1111100010001001
1111010110001011
1110001000110010
1110001111
1101000010
110110000010
11011001000
1111110011100101
11101011110
1100011101
10000000100
1111110100011010
10010011000
1101101011
111000111
110011110
10011
1111100000100000
1110100111011110
1110111011000000
1111100100000011
1111110010001110
1111110111111011
1111110000011000
1111110000011001
10110010010
110101011011
110010000001
1001001100000
110111000001
1111110011001110
10110001000
1111110001011110
11101010011
111110001001
10011011111
101010000101
1111001
1010010
101001101
111011
1111110000011101
111011110
111000
1111111010100010
1111001001011000
1110111110111110
1111001001111110
1111011010000101
1111110011101000
1001
1111111001001000
1010000110
101000010010
111001010000
111100110010
1100100011111
1010011111000
100001110100
11010100010
1111110101110100
1110011110
10111001111
1011110001
11100111001
100100000110
1101000
11110011110
101100011
110111
1111111110100100
1111110010110010
1111010100001101
1110110000101010
1110110100001011
1111001010111110
1111011110101010
1010101
11010000011
100101010001
100100101010
10101011101
100000111101
100111110110
11111111101
1111110110011001
1111100101110010
100011101011
100101111
1111100011010000
1111011001010000
1001000011
100110011001
1001000001000
110110000111
110100111110
101011000101
101010010110
11110010100
100001
1111011100011001
1111000101111111
1110111101111001
1111100111100111
100000111
100111000111
100111101111
100001011000
11100001000
1111111110100001
1011011011
10001100010
1111111000101001
1111100001001001
1111011011001101
111000110
10111011000
1111011101010101
1111101001101110
1111101111110110
1001000101
110010001011
10100111101
110111001110
101001010111
111001000000
111010001011
110000101000
1111111010001111
1111011011110001
1111101011000011
1101100001
100010111010
111000001101
11110101010
100000001000
10100011010
1010101100
10000101100
101100111
1111011001011100
1111100110010000
10010010011
11000010000
11101101
1111011110111111
1100101111
1111111110100010
1000100001
1111101111101011
1111101100111100
10100001100
10000111001
110011110111
1010110001111
1010100001001
11110000101
10011100
10001001000
100001100100
11000001101
1100010101
10100101010
1111111010001011
10101000010
1111110101100111
10110101
1000001001
1111100101110110
111010011001
1111000000
100011100
10110011000
1111101111111010
1111110010101100
1111101011110001
1111011110010000
1111100100110001
1111101001110110
101100
111010010
11010100110
110101101011
111111110111
110110011011
10101100111
10011100101
10101001000
10001011010
100110111
10111011110
110000101
1111111111000011
1100100111
10011100010
1010100000
1111111101000100
1001000111
101101001001
11110010011
1111110100000001
10101111010
1111111011000100
1111101011101100
1111001001
1111100000100001
1111110010011100
1111110111001000
1111111010101000
1000101011
1011100001
101000011000
10110111001
1111110100
110101001
1111110011011111
100100011
1001100001
1111111111111000
10011111
1101101
1111111000100101
110111001
11001000
1111111110110111
1101000010
11101110011
101001011101
11110
1111101000001001
10110001110
101010010
1111011111101110
1111011011001001
1111111100100110
1111111000010000
1111110111001111
11001111
1111111111101110
1111111010010000
1111111011101010
1111101111000000
1111110100011010
1111100111001010
1001110
1111110011100100
1111101111110101
110110011
1111111100000111
1001101010
11101100
101000111
10100001100
11110101011
10000111000
1111111111000111
1111110011101011
1010100101
1000000
1010110111
1111100100101101
10000010
1111110000111010
1111101000111000
1111111000101100
1111110101001101
1111111101011110
1111110100100001
1111110101010110
1111101110100000
1111101000110011
1111101100011011
1111111111010001
1111111101000111
1010010010
1010000111
1000000001
1101111111
11110010011
10111011001
100101101101
1111111010110011
100001110011
101000101
1111110100111110
1111110100110001
11000011100
1111110010011001
1111110101010001
1111111010010000
1110101101
101111100
110110010
101010010
100111111
1111111110001010
111010010
1111111011000001
1111111110001000
101000001
1001011001
11011110
1111111101011100
1111100111101110
1111101100000100
1111110110000001
11101101111
101111
1001000011010
10111001010
11100010011
1010101101
10011
10101010
1111101000100101
1111000000011010
1111110100100001
11010
10001001101
110011100
1111111001001101
10001011110
1111111100111101
1111111000011000
1111110000110010
1111101110001001
1111101111111100
1111110101011011
1101001
1000100100
1111101001000111
1111100001000100
1111101100110100
101000000
101100111010
110111000010
100011011101
1111110110110111
1111100111100000
10111000
1111111100101110
1100010
1111111000011000
1111100110110111
101000101
10101110100
10010101100
110010
1111111010111001
101010001
1111111
1111110110111101
1111110111110111
1111101101010000
101010010
1010001011
110110111
1101001110
1010011
1111101110101101
1111101010110001
1101001111
100101010
110001001101
1001010100
1000101010011
1111001010
1111111100001010
100110100
10011011
1111100001001111
11110011110
10100110011
1111000000
1011011001
1010100101
1111110010011000
1111111110011000
1111011100010001
1111100001011010
1111011111010000
1111011100111001
1111101010111001
1111101000000110
1111101110000111
1111100000010010
1111100010101110
1111010111011010
111010010
10111010110
1100101110
1111111110001100
1111100110101001
10100000111
1111111100110111
11101000
1111111101000111
1010000
1111111110110111
1100110101
1111100110011111
1010111111
11000101011
1011110000
1000101101
1111111011010111
1111110100111110
1001101
1001000010
110011001
1111111011101111
11110011
1010011101
1111101100101010
10001111001
10001001001
11100111100
1111110101
11110100011
10011111110
1110101
1100010100
10100101
10011010
11101001
1111111110111110
101101
1111111101001111
10101011110
100000011000
10001010010
111011110100
101001110100
1101110111
1111111111011010
1111110011000111
10001011101
1000001110100
11101101111
10100010100
101101110011
101100001010
1011001
11010110001
111010110111
101010011000
101010010101
11110011001
10010
1110001
1111111011001011
1111111111000101
