1111111100111000
10101011
1111111010111011
1111111110100000
101001100
100011010
1001110
1000011
1111111110000001
10000001
100011010
1111111110011000
1111111111100010
1111111100010101
1111111010111101
1110100
1111111110011000
10100101
10001101
1111111100011100
1111111100001101
10100111
101001111
1111111100101110
1
1111111010110111
1111111011111001
1111111111111010
100000100
1111111011011110
100101
1111111011110101
101001
1111111100100010
1111111100000110
1111110011001001
1111101100110100
1111011110111101
1111010011111010
1111011011110111
1111010101010011
1111111011110100
10000111110
1111000010110001
1110111110100010
1111000110000001
1111110000000110
1111011011000000
1111001000101001
1111100100000100
1111100000001111
1111100111101001
1010011
1111111011010000
1000101
1111111101000010
1111111111001001
101010011
101000
1111101010001011
1111101111110010
1111110010100001
10011000
1111100100101011
1111011010011011
1110101011001001
1111010000010000
1111010011110000
1110011110101110
1110111001000111
1110100111010111
1110000110010110
1110000111010100
1111000100011110
1111101110000111
1111000111011101
11101011
1110111000100100
1111000111010010
1111000111011100
1111100011111010
10100011
1111111110111111
1111111111011011
100111001
1111111010100011
11010101000
1111111011100100
1111110010001100
1111010001101001
1111000100011100
1111010110100000
1110111110011111
1110110001110011
1110011110001011
1110010100001010
1101111000110100
1101101001000001
1110001110111100
1110010010010000
1110010001001000
1110111110011100
1111100001111011
1111101011000101
1111101001100011
1111011010000110
1111101101100110
1011110110
1111111110011101
100000010110
1111101011100011
11011011
100000
1111111110011110
10111001100
10001111010
1111010001110111
1111001101101000
1111100110111111
1111001011111111
1111000011010001
1111011111001000
1111001100011101
1111100100111001
1111101001001101
1111110100100011
1111101000101000
1111001110110010
1111110011101010
1111111111010010
1111111001010000
1111111100110110
1111111010000101
1111110111000110
1111101100010000
1111100110
1111110010000000
1111011110001101
1111100101000110
1111011010010100
1111111101100110
1111111011000111
1111111011101011
10011110001
1111010010001010
1111011001111100
1111101010111110
111110011
1111011010010111
1111101101000011
1111011100010101
10010011100
100011100101
11001010000
1111111011
110011101
1111110111011011
1111111110000010
1111111011111100
100101111
1001111101
1111111111110111
1011111110
1111100110100110
1111100101001011
1111110000011101
1111111101011011
1111110111001100
1111111011011010
1111110100110011
1111100110111100
1111011101001111
111001100
10000111000
1111001111001101
1111001101110110
1110111011111110
1111010100011000
1111101100101010
1111111111011100
1001010100
11101101
1100000001
1110110011
11010001110
10000100001
1111111100101000
101001000
1011001110
111010010
100110101
1111111110011001
1000011001
1111111101110000
1111111100100101
1111011111010100
10010011
1111010100001101
1111101001000000
1111101011010111
10111101100
100110010
1111001001001110
1110111111111111
1110001101111101
1111100101111011
1111110111010100
1111111100001010
100101011
11110110
1111110001011100
100000001
1000010100
11001111
1111111111000010
1110111011
1111111111100011
1111110001011100
1101000
1111111100000011
10101001101
1111110000110001
1111011101100010
1111011000101101
1111100011011110
1111010010011010
1111101000011101
1111101111001101
10100110
110110100
1111111011111111
1111010100010011
1111001111000010
1111110001110011
11010000
1110111111
1010110010
1100010011
1111111010101001
1111110010101101
1111101011010100
1111110110010010
1111111011100101
1000100110
1111110111101000
1111110010000111
111000101
1110000100
1000100010
10001011000
1111110001100110
1111100110110100
1111110110100100
1111110101001010
101001110
1111101000011100
1111111010110100
1111111010011011
1111011011010110
1111100101111110
1111011100001111
1111100101010111
1111111110011010
1111111111100001
1110001100
11110111101
1111111110011100
1111110000000010
1111011110000111
1111100110100000
1111110100000110
1111110000100110
1111111111011110
1111111001100101
1011000101
1111111000110000
100000110010
1111111100110110
1100110100
1010011110
1111101100001010
1011111
1111001011110100
1111111010001100
101001100
1111110101011111
1110101111011011
1111010111111000
1111011000100011
1111101000000110
1111110010110001
1111111110111000
10010000110
11010010110
100001010111
1111111011110100
1111100000101011
1111101111101000
1011000000
1111111100011111
110011010
1111111100111110
1111111
11010101111
10111111101
10100110110
1111100110001010
10000000
1111110100000010
1111011110000010
1001010010
1111100111010001
1111011000010110
1111100011001100
1111011011001101
1111101111110100
1111110101100010
1111010010
11001110110
1110011001
10010000101
11000010100
100011010000
10110000001
10111111110
1111111010111100
1011111101
100010000
1110000101
10001010000
11100011011
100010111101
101001001111
110001000
1111111101010101
1111100110100011
1111111111101010
1111100001011010
1001100001
1111110100101010
100101
10100011000
11000100011
1111110000100010
1111111110010010
1111110
101110111
10100111110
101001011
10111100
11001011000
11100100110
11100100100
1011001000
1001000100
1011110
101000010000
10001001100
100110111010
101000111101
100100011100
1111111010100000
1111101111000000
1111100100100110
110000011
1111100110001110
1111101101001111
1111010110010001
1111101111100011
1111111000110110
11001111111
110001
1111101000101011
1111011111100110
1111110000001110
110101000
1011010000
10010011000
10111101110
100011010101
11010010111
1000111111
101011011
1111111111011011
100000000001
1010001011
100010100110
1111011100100100
1111011010101111
1111100010000110
1111010001010101
1111100111110110
1010001010
1111101110001001
1111110100111100
1111011110100111
100010110000
1011110000
1110111001
1111111010111010
1111100001101010
1111011110000111
1111100011010011
1111101001100100
111000000
101000010101
10011101000
10000110001
11000111101
1000010001
1001100000
10011111111
100100110100
101100101
1111100100111011
1111011101011000
1111010010110001
110011100010
1111111011000010
1111100111101001
10110100
1111110010001110
1101001101
1111111100001110
1101111
1111111011000111
10011111001
1111111011100001
1111100111101001
1111100000000010
1111111010010010
1111110101001000
1111111011110110
1100001000
1111011110
11011111
100000101111
101100101
1111111111000111
1111110001010001
1111100110101111
1111100011000000
1111110000100000
1111011101000100
1111010001000010
11100010010
1111011011000101
1011
1111111101000001
1111101011001001
1000001111
1111101011111111
1111010000000001
1111100000011001
101101
1111101110011001
1111110110100010
1111111000011100
10000111
1100011
11110100
1111111111000110
1010001010
10001010000
1010111001
1111100110110111
1111100110001110
1111010110010100
1111100001111001
1111101000110010
1111110001100011
1000100011
101111110
1111100101000011
1111100010010010
1111101011000100
1010001
1111110110001010
111001101
1111111110000000
1111001110100111
1111100101010000
1111101001111000
1000011100
101011001
111111100
1001110001
1110000111
10101000000
1100000110
10110011000
101001
1111100111010100
1111010110100010
1111001110101100
1111000011000111
1111101000100011
1111111001000110
1111100111011110
10000101000
1111110011100111
1111111010101001
10101000
1111100111011111
10001101110
1111101001110001
1111101111010100
1111010001010101
1111000000101100
1111110100100100
100011101
101110001
11
1001000000
110110
1000001101
1111110001011100
1111111111100100
1111111010010011
1111011101011010
1111011010010101
1111100101010110
1111100000000010
1111010000001110
1111101010001001
110101
1111001010000000
1111110001010111
1111011001101101
1000101011
11110011111
10110011100
10100011010
1111100011110111
1111011110111111
1111100010101011
1111010000111110
1111110001000010
1111101100000010
1111111101011010
1111111111101110
1111111111000000
1111111100101001
1111100111100101
1111110111010001
1111101101010010
1111110011001000
1111101010001110
1111110101000100
1111100001010111
1111100001010110
1111100011001010
1111011101100101
1111111111111100
1111101101010001
10000110
1111111111110100
10111111110
10011010010
11110000000
1111111100111010
1111101001101100
1111010110010010
1111001010001111
1111001101101010
1111111000001000
1111101011011000
1111110100011000
1001100001
11010011
1111110100110111
1111101101111011
1111101010100100
1111100110001111
1111110100101001
1110101
1111101010101000
1111100111100101
1111010100001100
1111101010000110
1111000100010110
1110111111111011
1111010001000100
1100001001
11000011000
10000110011
1100111110
11100000
10010100001
1111110111000100
1111101110111011
1111010010011000
1111011111010100
1111101110111010
1111011110
1111101000101000
1111111111100100
1010011100
100010010
1111111101101010
1111101101010000
1111011110100101
1111101110000000
1111110110001110
1111101011101101
1111100001100010
1111101001101001
110001001
1110111111111111
1110101010000010
1111110111100111
100101001110
10010100011
1111111001011001
1111010110000010
100010011
1010110111
10010110100
1111110111001000
10010111000
1111110111100101
1111110110001000
10111011
1111111100100011
10011000
10000000011
100110001
1111110111101001
1111110001001111
1110100
10001110
1111110011010101
1111110111001001
1111110011111000
10110010100
100101000
1111110001101111
1110111001101110
1111011110011100
10101110110
110010001011
1100011111
1111100110010110
11100111
100000100
1111111010110010
1111011110000011
100
1111110101101101
1111110110000000
1111110011010110
1111111111100111
111000101
110011010
1111111001000010
1111101110100000
100011110
100010111
1101111011
10001000001
11010100101
1111111011111010
1111111000001110
1111111110110001
1111111000001101
1111110011011111
1111111111001101
1111111111100000
10101101111
1111111110001100
10010011101
10000
1000
1111111011110001
1111011110111000
1111001001101111
1111110011011111
1111100110010101
1111100101001001
1111111110010100
1111111101010010
1111111101110011
1111111101100010
1111100100001011
11110001
100010011
1111111000111000
10101100001
10100010
1111100010101100
1111101000101110
111011110
1111111101101010
111101010
1111111110011001
101001001010
1110110111
11101000101
11010011011
10010
10101111
101011111
11010000101
1111100101110101
1111100111001111
1111100110111111
1111111011001011
1111101001111010
1111111101101111
1111011111010000
1111110110010100
1111111010011101
1111111100111110
1111101100010110
1111111111111010
1111110101111001
1111110100000110
10111110110
1111111110010110
1111110111010011
1111100110110100
1111001011000101
1111110000000011
1001001
1111111011111000
1111111011000011
1111110010110000
1000111
101001101
1111111010111011
1111111100110100
10011101001
100011100010
100101110010
110100001111
10111100000
10001001101
11000110101
1000100010
10100000011
10100010000
1100001101
101100010010
1011101101
1111110001011010
11011111000
100111101
1010011111
1111111001000101
1111011011101000
1111011010011011
111011011
10111110111
1111110101110011
1111111011001100
11
1111111101111100
11011011
1111111110010110
1100011
1111011101000001
1111100000100100
10110011101
1010100010
11000000111
11001000011
101111
100010000110
11100101001
1111100111111001
1111111110011000
1010011101
100011100
1101110011
1111111001001001
1111110001110000
1111101011000100
1111100110000000
1111100101110110
1111111001010000
1111111011101010
1111111100001000
101000110
1111111111001111
