1111111010100111
10101101
100100010
1111111011100000
1111111011011010
101101
101010001
1111111101100000
1111111111010110
1111111100110100
100010010
1111111110001001
1111101011101000
1111100101001101
1001100001
11000111
1111111110100001
101011000
11001001
1111111110111000
11010
1110
1101001
1111111111100100
1111111111011001
1001111
11001010
1111111110000111
1111111111000010
10001
11101000
110111
110011100
1010010
10001101110
11110111100
10101000001
11111010010
100011110100
1001011101
1111111111101100
1000111
1010010011
101110001111
1001000110001
111100010110
1111111000011110
1111110000010001
1100000
1111110000000100
1110100111
10001001010
100000111
1111111100011000
10111110
1111111110101011
1111111100000010
1111111101001100
1111111101110100
10111000100
10100001100
1000110100
111101000
11101011110
11100010101
1000100110011
1100010011110
1010110111100
111111101111
1001011001100
1001111100000
1001001000101
1010101111101
110111010000
1110000011
1111001111000111
1111010111000010
1111100000111111
1111110010111001
1111110101001111
10101011
1111111000011101
10
1111111011100000
1111111
1111111101010000
110001010
10011001110
110000100100
11001001
101000101110
100000001110
110110011001
1011111010110
1110010100111
1010010111001
1001101110010
1000011011001
110001111101
1010010001101
1010100100100
1011000101
1111100010111111
1111100011010111
1111111100000010
1111100101000111
1111111010101000
1111110110111001
10001010110
1111111010011001
1111011111101101
1011
1111111111000000
1111111010100011
1110001000
11100001
101110111
1111111100011001
1101011001
110000100111
110111101110
1100010011101
1100111011011
1000111000111
111101011010
101010000000
1000100001111
1001001000111
111000101011
1000001110100
111101100010
11110011011
101000101100
11101001001
100111100101
1111101100010010
1111111111001101
1001111111
11000111110
1111110110010001
11101001
1111111011011101
1100010111
100011110110
10010110010
1111010111001100
1111101001100111
1111100110100111
1111100110100001
1010010110
1111110111100110
1111110000001001
1111110010011000
10110101
1111111001000001
110011010
101110101010
10111100100
101111010100
11000111010
101110001101
110011011010
100110010111
101011100011
1111111011100011
110010000
100010100
1111101011000110
101011010
1011110001
1111110001010000
1111110010110110
101100001
1111111010101010
1111111010111110
1111111111011001
1000000001
1101101
1111110010100001
1111101011001110
1111110111000100
1111110001100110
1111111100001010
1001110010
101010
1111110000011001
110011111
1010001001
11010000101
101011101
1101110010
11101011100
100110001100
11110000100
1111110011010000
1111101111010000
1111110100001000
1111111110100011
1111101100010010
1111100001111000
100000010101
11000101101
1111111100001000
11001101000
111100
1111111001101111
100101
1111001111
1111111100100010
1111110101111001
110000001
1011001111
1111111101110011
1111101111001111
101011111
110101101
1000111100
10001110111
10011010001
11000100
100000101011
11100101100
1111100100010000
1111110001010100
100011010000
1111011011
1111101110110001
1111110000000011
1111101010
1111111101101000
1100110111
1111111011010110
1111101010010000
11011001
1011100101
1101110000
11101111010
100001010101
1111111000111011
1111101001001011
1111110010000000
1111110100010011
1111111011110000
100100101
101100111
10010011101
10001111000
10100101110
101100001000
11100001001
101101110101
11100000000
11
1111101110101101
1110101010
1111100111010001
100101100101
1110010001
11111001000
1010011100
1111111101010110
100100011
1111111110110011
11000110101
11001001001
10011011001
1111100000000101
1111001001011001
1111100111100100
1111101100000111
1111110010011010
11011011
111000111
1010001110
1111111010100010
1001010100
1111110010
1100001010
101010100101
1111110010010011
1001100011
1111111110111111
10011110000
1111111101110111
110101101101
11000100010
1110000110
11100110101
10101110010
1110000000
10010011101
11101100011
101101000001
10000010001
1111011100110101
1110111001000000
1111010000000001
1111101111001110
1111101100111010
1111101111000110
1010000110
1111111111111111
10001010110
1111111010111000
10000100000
1111110001011101
101101101101
1111111101110011
1111110111101010
1111100110001001
1111101101001001
110001011
1111100000
11110110
10001110101
110011000
100011010
10101100010
111011
1000011010
11101011001
1111110111110100
1111010000011000
1110110111110001
1111011000000111
1111010011010111
1111010110101100
1111100011001001
1111111111000110
110010010
1000110111
101010111
110110011111
110001010
110010100100
1110111101
1111110001111001
10101001110
1111111010110001
1111010010011100
1111110110000001
10111101111
1100101111
10110111
1111110011110010
10011011
100110000
1001000
100110101
1111111101001100
1111100100000000
1111001101011011
1111011111101000
1111100000001001
1111010000110000
1111010111111000
1111100010111000
1111001101
10110101110
110111001110
1001110001011
101000110101
1110111011
1111111000000100
1101011011
1111010111
1110111000
1111010101101101
1111101010100111
110101110101
1110100011
1111101110111001
10010011
1111111010100100
1111110011001110
1111111001111010
1111110011000101
1111100101000000
1111101011110011
1111011101101101
1111010111010100
1111100110011010
1111100110001100
1111110101010110
1111100101100011
111010110
101111010000
1000111100101
110110001100
1111111001011001
1001000110
100001100110
1111110110010001
1111101110111011
1111100101100111
1111101101100001
10001001001
110011010000
11000000001
1111111010111001
1000101000
1111101101100111
1111110001111011
100101011
1111110111011011
1111110100011000
1111111011101001
1111100110110001
1111101000011111
1111101111010011
1111101110000011
10100111
1111111000110010
1110100110
101100100100
1000001101111
1001010000011
10010000000
1101111010
11100101111
1111110000000001
1111110010011011
11101110110
1111010010110001
1111111001001101
100101101111
1111010011
111111010
1111111011001011
1111111011100110
1111111000010011
1111110111011001
1111110100110100
111110011
100000001101
1111110000010111
1111100110110110
1111011011101000
1111101100101011
11101001011
10100111001
11010101001
100010101100
111110010100
1001001110000
100000011100
1111111010010100
1001101000
1111110010000001
11100101101
10100110110
10000111000
1111110101101001
11101110100
100000001010
10011110
1111111101111010
1001010000
1011011100
1111110101110110
1111110111101110
1111111010
10010011000
1111110101010110
1111011111001000
1111100101000011
11000010
10011010111
100100110111
111100100000
1011011110111
110011101000
11101000110
1000001110010
10111111001
101010001
100
1111111000110100
1111000000
100111000111
11101000100
1001111110
1100000101
1111110000110011
10111001
10000011000
1011100
10000010001
1011101001
1011000111
1111110100010011
1111011001110000
1111011111110010
1111101001010101
101100010
100110101000
10011000101
11111110001
101010000101
10100001110
1001001110
1111100101010011
1111111010010001
11100111
1111100010100100
1111111111000000
10111000010
101011110000
10100110000
1000100
1111111100010000
1111110101001111
1110010100
100110001101
11001100011
10000011111
1110000111
111001111
1111101101011100
1111101001110111
1111011000110111
1111100111010000
100011011011
100000110001
100011001001
101000010111
11011000011
11101111000
11100110110
10011010
1111000110101110
1111110000111011
1000110001
1111110110111011
10011000110
1000100000011
1111100110000000
1111110100100111
1111110100110101
1111111100000101
10101100011
111010111101
111111111001
10100111101
1100000000
100010110100
1111111111011111
1001100001
1111111001011101
101010100
11100111010
1111111000110011
11010010011
101100011010
100001110000
111110001110
100001110100
1111111000001010
101011110
1111101001000010
11001000
10111110011
11000001100
101001001000
1111100110111101
1111110010110010
1111101001100101
1000011100
1111111101111011
11011111101
11111001001
100010010000
110000110011
10110100001
1100010000
11111110000
10001000101
11110011000
101010001000
1111110111011101
100010010101
11011011010
10001100110
11101100011
1100101100
111101011
1111110101111011
1111110100011000
1111111001110101
1101000001
110110100
10001100
1111101000110110
1111010111101001
1111101100100010
1111110101010000
1111101001110111
1111110111001111
1101101
10100111001
11011111100
100001000100
101000100011
110010110010
1010110100
101100101110
1101000111
10010000111
10000110011
1010101011
110011010
1100000011
1111011101010010
10010110001
11111010111
10010011
1111111110010000
1111110111101101
11001001111
100011000
110000101
1111110100111100
1111100011101010
1111111101011111
1111110010100000
1111100011011011
1111100001000001
100111001
1111111011110110
10000111110
10011110111
100000000111
1110110
10110001101
11100000
110000011
1001101101
10110011110
1100110000
1100110110
1111011111110110
1111101001010010
10110101101
1111111110011101
1111111010111000
10101100
110000111001
110110001110
1111110010000101
1011101
1111110110111001
1111111101001001
1100101
1111110001100001
1111110111010000
11
1111111111111011
1111000011
1011000100
101100101001
100011001100
1010110110
1111111011000100
10001010
11000010101
10010011010
110111110
10000100110
1111111001001110
100111101011
1001011010
1010011
1100111
1111111100010000
1111101110010000
10001011111
1111010000110000
1111011101011110
111000100
1111111011111011
1111111100110011
10001000
1011001101
11101011101
100100110011
100010111111
100001011100
100010010111
11011111000
1111111110010100
1111011100
100001011100
1101001100
110011011
110101001010
1111110110000111
1101111
11100100111
1111110100101100
1111111011100011
1111111100110000
11100010
1111111011101101
1111110110001101
101010010
1110001100
100001111
10000000001
1111100
1001010001
11011110011
10001000110
11011011101
100001101000
11010010110
101100011000
11111110011
1000010111
10010111111
10001101010
10111011110
1111111100100001
10110100
100110001100
10011000011
1111110001001100
1110011000
11001111
100001010
100101011
1111111011100001
1111101110111000
10011100010
1111111010110110
1111011000011100
1111100110001111
1111111110111100
1111100001110011
1111110111011101
1111110010000111
1010001000
11011111111
1111101110000000
1111101000010011
1111110100011111
100001010
1111111001110110
1110011
1000001100
1111101111100000
100110100
1111101111011011
1101011111
101100101
1001001
1111111110001111
11000011
1111111101111010
1111111101100001
11111
1110010000
1111111100000111
1111110001001111
1111111000111100
1111110001100111
1111011011101111
1111001110100011
10001101001
11110011
110001011
1111100100001001
1111110001101101
111011111
1111011010010101
1111010101000001
1111101011101101
1111101110000000
1111100100110101
1111111011010011
1111110100011001
11010110
1111111101011010
1111111011100001
10000010
