1111111100010101
11001101
11001
100001111
1111111011111010
1111111110000110
1100
1111111011101010
1111111100100000
1111111010111000
1111111011111111
1111111011000111
1111111011011010
1111110110111011
1000111
11110111
10111111
101000100
1111111110110111
1111111111110111
1111111110010001
11110101
11100100
10000101
1111111011100011
1111111011011010
1111111110010101
1111111101010011
1111111011101110
100011
10001
100111
101000101
11100000
1110101000
1111110111100111
1111110100101101
1111000100001010
1111110000101001
1111101001111001
1111110001111001
1111100100001010
1111001110011010
1111111011011011
10000001100
10011010101
1111100000011100
1111100010000101
1111101100100010
1111111011000011
1000101101
1001
1111111111101011
1111111011100011
100000011
1100010
1111111110000000
1111111111111001
1111111100111011
101110100
1111100010110101
1111011100100000
1111110111101100
1111001110000100
1111110010000101
1111110110010110
1111110101100101
1111011000110000
1111110100100011
1111100001
1111101101110011
1111011101110011
1111001100111111
1111011101111001
1111010111100100
1110110101100011
1111001101000010
1111001101110101
1111010011001000
100100000001
101000011100
100010001010
110
10110111
1111111100010000
10010010
11001000111
100000001101
1111110000010001
1111110111001110
100000110
1111011000111010
1111100111001000
1111101110010011
1111000000101001
1111000011110110
1111000101110011
1111000101000000
1110111111100100
1111000101000110
1110111001000000
1111010011001110
1111011111001000
1111101011010100
1111110010111110
1111100110001001
1111001011100110
1111010111100110
1111101010000110
1111101101011000
1111101010101101
11001110
11101110
10011110
10000000100
1111101110010011
10101110000
1111110011010100
111001011
1111110101111101
1111100111001110
1111100010111000
1111100110001000
1111100010110011
1111100001001101
1111111110011011
1111101011000000
1111101000101001
1111011000101111
1111010101011001
1111010101110111
1111111100110111
1111110011010001
1111010100001110
1111001011001001
1111101000000101
1110111101100001
1111001110001001
1111110001000011
1111111001010001
1111111111110111
1100110
110110001101
1111011110
11000000011
1111101100000001
1111110000000111
1111111100110111
1111100000110100
1111101110110101
1000100001
1111010101
100111
1111111010100011
1111101011101101
1111110100010001
1111110101100101
1111010011111000
1111100010001001
1111101100111001
1111100001110111
1111111
100001101
10010111111
1111100010100000
1111101100010100
1111111010011011
1111110101010110
10001111
1011001010
1111010011001000
1111110011011101
1001001011
1111100010100010
110111010
111010
1111111011000110
10101110
1010111100
100001001
1111111100110101
1111111000011111
1100111
1111111011010110
1111111110111101
1111101111000010
1111101010011011
1111110010101100
1111110011011110
1111101110100011
1010001
1111100001100101
1111001101001111
1110111011011001
1001100
10101000
1111110101010110
1111111001010110
1111011111001011
1111111010011010
1111110110010010
1111111110100111
1111111000011010
10111100110
1111101101111101
1110110
1111111111101001
1111111001001111
1111101010011010
1111101101011111
10010100
1010111001
1111110101111101
1111110101011100
1111110110001101
1111111110101010
1111110011001100
10000001101
10001101010
1111100100100100
1111011110100000
1111110011100011
1111111100101101
1111111010011001
11001010111
11000010101
1111101110000101
1111111010111001
110101111
1100011
1111111000000101
1111111101101011
1111110100001110
1100
1011011011
1111111001001100
1111100101010001
1001000101
11111011101
1010010000
1111100111011101
1111110101111101
1111101000011111
1111110000110100
110100110
1111110111100110
1001010001
1111101101111101
1111010110011111
1111110011001110
11110100
101101111
11100100
1111110010100000
11101100110
1111101011101011
1111110000000101
10111100010
1111111001110010
1111110101010000
1111110101010100
1000111111
101010111
111100100
10001001010
101110000100
100010110011
110100101
1111111110101111
1111110000010111
1111101011000101
1111110110000100
11101001
1111100010001000
1111101111101110
1111101111010111
1111101000011111
1111110000000110
1110110100
1111101000000011
10000000
1000100110
1111000100
1111101011111001
1111101101000110
10001011101
11110000101
101100010
10000101110
10010010001
100010100101
101100011010
10100101010
11000000000
11010100
1100000011
1111110010110000
10101000
1111111100111010
1111111010001110
1111111101111111
1111101111010011
1010100
1111100011001100
1111101001111000
111000100
100011001101
11110100000
1111110100111000
1011110010
111101101
100011
1111111111100100
101111101110
101010000100
100000110001
10111011101
11011000000
10010100000
10100111110
1111111001100110
1111011001001011
1111011110101001
1111110111111111
1111101000011001
1111101101010000
1111101101111101
110110100
1111111000001111
111001010
1110011101
1111110011101110
1111101010101101
1111011101
1001010010
1111111100110010
1111101010100111
10011100110
11011111
1111111010110000
10111010100
100110001011
11010000000
100110101101
10010001010
101000011
1111011111111000
1111010001011001
1111010101110101
1110111000000101
1111011110000010
1111110000010011
1111110000010101
1111111101000010
1111100110111110
1111111011111000
1111101011100010
1101110
1111111110110000
1111011110110101
1111100000110010
10000110010
1111111000101101
1111110011100010
1101100001
101001000100
100000100001
1111110010101010
1111110110110000
1111111111000011
1111101100000001
1111110011000000
1111100110101110
1111100111101111
1111000000010001
1110110100011011
1111000101101010
1111100101001111
1111111110000000
1111110111101111
100100111
101011110
1111101010010011
1111101010010001
10101100
10001010010
10110011111
10001001111
101011001
1001111111
101001101110
1110110111
1111101000011011
1100101
101010101110
1111101011011101
1111011111110100
1111001001010101
1110111111111001
1110100001100011
1101111100011111
1110010001100010
1110100011110111
1111001010111010
1111100101001000
1111110101111111
1111111101101000
1111110010010101
1000001
1111110000000110
1111110101000010
1111111101100001
1001100100
1111111110110010
1000000111
10111110010
1101001011
1011111001
1000010010100
101101000001
1111110000011000
1111100101010110
1110010001
1110110110100110
1110111000001011
1110011010011001
1101100011011110
1101111011101001
1110010100101001
1110111100111100
1111001110001110
1111110010010100
1111111100011110
1101100111
10110101100
1111111101100010
1000111010
1111111101100111
1111110101011011
1111111101111011
1111111100111110
1111110111000011
1111110011011001
10001001100
101110010011
101000110
10101101000
110010100111
101110
11010100010
11110101011
1111001100111110
1101100101101111
1110011101000111
1101111011001011
1110011001010111
1111000110000001
1111110000001000
1110010110
1101110110
1111110101010100
10101110101
10101111010
1111111001111101
1111111111011100
100001100
1111111001001101
11010101
1111100011100100
1111100101110011
11111
10010001101
10101011100
1111110001011110
10110011111
111010011101
1000110
11100100100
101111000
1111011000101010
1110101110101111
1111001111001110
1111101111000101
1111100000101001
1111101011000010
1111110101111111
1111111011000101
100000010
110111001
10111111010
11111101111
10100101
1111110001011111
1111101110111010
1111110110110010
1111111011
1010001101
1111101011000010
1111110001011000
100100101
1111110011101100
11000100001
101111100110
111000000001
1111110110110111
1001011001
1111100001110010
1111101110101001
1111100110111100
1111110010010100
1101001010
1111111000001001
1111101011110011
1111111010111100
1111110001100101
1111101110010001
1110010111
11001111110
11101011000
11100001101
1111110101100001
1111101011101111
1111111010111100
100111010
11011
1111011110100010
1101010110
1110110111
1101001011
1111111100100100
1100111101
111000011101
10100111110
1111100111111100
11000101
1111010001100111
10110010011
10001010
1111111100011001
1111111110100110
1111111111101011
1001101000
1100010111
100010
10010000
110011000111
100010111011
11000010111
1011100000
110010
1111101011110111
1111111001110010
101111010
1111110001100111
1111110111000011
1111110101110100
10101111010
1001001100
111100011010
100011100001
100101110
1111110011001100
1000100
1111110101011111
1100100011
1111101001100001
110110100
1111111010110101
1111101001
101010001
110010000
100001010011
100110000111
11011101110
11001100001
11111100
10100110111
1011101011
1111111001011111
1111111010100010
1110011001
101101011
110101100
10110000001
11011001100
10000110000
111011110001
1111110100111001
10001010110
10111111010
1111111011101010
10101010
1010110111
1000110000
1111110001001111
1111110000100000
1001100
11
1010000110
1100100001
10101110111
1111101001
10110000010
11000101100
111100000
1111111111101001
101101101
11001011001
1101011111
10101011110
10000110011
101010111010
1110011000
10100100000
100110010000
100010001
1011010011
10000000001
100010001101
1111101000101000
1001011100
1100100110
1111111100101000
1011011101
11101011001
1110011010
1111110011001110
1111111011110111
1111111001111001
1111110101111100
10010000
1111111001101001
1111100101010010
1111110111011111
10010100110
1010111111
10000110111
11010111011
10011001010
1100110100
10111100001
10101010000
1111110100100011
11111111
1111111010110110
100111111
11
1111011101110100
1111001101010011
1101011100
1111111110010101
1111110010011000
1111111100110111
10101110011
1111111111001011
1111111011000101
10010101011
101110100
1111110000101000
1111111000111101
11
1010010001
11010011011
111011100
10001001111
101111111
100101000100
11011100001
1111011111001100
1111111001000001
1001111111
1111111011110100
1111111101001000
1000111
1111011111101000
1111100011101101
1110111111001111
1111010000010110
1111100110010010
1111100110000010
1000101100
101011111
1111111010101011
1111111110010010
1111111100000000
1111110101110110
10011010
11001
1111111111101111
1000100010
11100110111
100011100111
10010001101
10001100100
11000110100
1111111100100111
1111111100100110
110100111000
100001101000
1111111011100111
1111111101000100
1111111110100100
1111111011001001
1111101010010111
1111100110000011
1111011111110011
1111010100011111
1111001110001101
1111101100000001
1111010000000001
1110110001100001
1110110011101000
1111001110010110
1111100010000100
1100111
1011110000
1111111011101001
1111110110101000
10000000111
1010100001
11101111101
1111111000000101
1111111010000011
1111100111001111
1111011111100111
111101111
11100110011
100000
1111111110110000
1111111011110010
1111111101000101
1111100111100001
1010100
1111111111100100
10101111
1110101111
111010111
1111001110100110
1111111101011010
1111101000010101
1111010100101111
1111011111001011
1111001011000011
1111000101101010
1111001100110000
1111011100111010
1111111001001000
1111101101
1111110101001001
1111000011111110
1111100100011111
1111111110010000
1110011000
1101101010
100110100
10000010
1111111100111010
101000
10001110
1111111101100101
11010100000
100101101000
1001000001111
1011011010001
1011011010000
1000100010110
11101000111
1001010000000
1100000100111
10010000100010
10000000000101
1111111110001101
1111100011100010
1111100010111001
1111011111111101
1111101111100101
1111011011111100
1111010010110010
1111100000101110
1111111101
1000010
1111111010100111
1111111101100101
100010101
