101010010
1111111011110100
1111111011010100
1010111
10001
1111111111101010
100011101
100111011
100111000
100001
1111111110100110
11001101
1111101110101101
1111110000000100
1111101100
1111111111111111
1111111110100010
101001110
11011011
1111111101110001
11000010
110101
10100110
1111111101101000
11011100
1111111100111101
1111111100110010
1111111110010110
1111111100001110
1111111110110010
1111111010100010
1111111101110110
1100011010
11001100100
101111000100
1000100010101
100111010011
1000000100101
110000101111
1011010011000
1010100110111
101001011000
1111111000100101
1010101110111
1001011000011
1001010011000
1001011101011
1001000100010
1001100110010
100011101111
100010010101
100100110001
11110011
1111111011111110
110010
100101100
101000110
10010010
10000101111
100101000110
100010100000
101100111101
111100110010
1001001110010
1001011100010
1110011010110
1101011010000
10001011100000
10100010111011
1000100010000
100001110110
111010101000
110110101011
11010001000
1000100110100
10000101100010
1111011100110
1110000010010
111110110111
111011110110
1000001100011
100001000
101000101
100001001
1010111
1111111100001111
1110000101
100101111110
101011111
1111111101001010
111010101111
1011000110010
1101010101001
1101011111110
1010001110101
1000101001110
1101010001101
10001011000001
1000111101011
1000011000011
100010000101
10001000000
1111111001000000
1111100111100010
1111100100000011
1111111011101011
10000111111
111010100101
1010000010011
11011110101
1111100011100001
10010101
101011001
100110
10000101100
1111101111110001
1001010111
11000011110
10010110001
11010100001
1111110110
1001110001101
1011010110111
101100101000
111100101100
1000100110001
101110001101
100100010100
1101001000
10011101110
1111110110110000
1111100001100011
100010000
1111110101001011
1111101001111111
1111101001000100
1111000111000110
1111110000010010
10011011011
11011000101
1111111111111010
11011
101011010000
1111110001000001
11101001111
1111101101001000
1110001110
101011000011
10001101
11010101001
100111111110
11001111110
10000110001
1000001100
1111110101110101
1111111000011110
11000010000
11100100100
1111110100111001
1111111111101000
1111011101101011
1111111110110110
1111110010001000
1111110110100110
1111011100011011
1111111011011000
110011000111
1111111011110100
1111111110101100
1001111100
1111101100100000
100000010011
10011101101
1111101001
11011010101
10010000110
100011100100
111100011
10001000000
100011100110
101100100011
10101111011
1111110111110001
1010001000
1110110001
1111111010111110
1111011110101101
1111110010011110
1111111100101011
111000101
1111110100101100
1111011101
11101000101
10110001110
11101011
100010011000
1111110101110010
100010111
1111101010000001
101101000
1010101001
1111111001001110
1111111011011110
1100101111
100011010
1101011011
100000011110
100100101001
10011101111
11001
1010101100
1001110000
1100
100011000
1111111001110111
1001101000
11000001
1111110011110011
1101100
1111111011001011
100010010101
100011110110
1111100010101011
11111011001
100010101110
1101010010
1111101001111001
1111111101010110
1111100001000010
1111100100010000
1111101011110001
100100101
110000010
10111011101
11101110100
10111001011
10011011101
1010100001
1111111110100111
1101000110
1001110010
100011000
110000110
1010111000
100111100
1111100000110000
1100110111
1011010010
11011101010
100100110100
10001001101
10100011010
11101011
1111101001010101
1111101000101011
1111101101010011
1111101010111101
1111111101000110
10110100001
1111111101110111
11011010
10101001000
11100110001
11111111101
100111111101
11100000101
100011000000
1110101101
1111111001000101
1111101110101011
1111101001000010
1111111110101010
1000110010
1111111111010000
1111111010011010
111001111
1000000011011
1001010010101
11101010001
1111110010111100
101000010
1111101100100010
11010111100
1111110000100100
1111110111010100
10100010011
111110001101
111011110
1111111101000011
10011101101
101111101111
1000001111000
110000100011
101111110000
111000111010
10011110111
1111110001100011
1111110001001100
1111101100000000
1111101110000100
1101100010
10010101100
1111111000000100
10111001001
111110001
1111111110010001
100011000111
10011101101
1111110101001010
101100000011
1111110101111000
1111110001011100
10100011110
10100111001
100101100111
1111110001110010
1111101111010010
1011010110
11000101000
100011101011
10100001100
11100010001
100000111111
1111110110110111
1111011101111001
1111100110110110
1111101101101001
1100111
1000101000
100100111
1111111011100010
101101001000
111000101111
10100100000
10100011111
10001110
1111110000010101
100000101011
1111111010001010
1111101110000101
10110001
11011011101
110000010
110110011
1111111000101110
1111110000101101
1000010000
11101011001
111010000
111101100110
1000101111010
11000100
1111110110000001
1111110101011110
11011000
10101011
1011111011
10001110
1010100001
110011001011
1000000011011
111100110011
1000001110100
10011001101
110011
10111101000
1111111101100111
1111111110010101
1111110100100101
1000111001
111110000
1111101001011101
1111101000111011
1111101010011111
1111110100011000
11100111001
110110110111
1100101101100
111100101011
1110111101
1111110110010001
1111110110001101
1111110011110100
10110111101
1111111111110100
1011101110
100100110110
1000011110100
1000011000010
101010110001
101010101100
10011101010
1111110111000001
1111111010111111
100100110010
1111100001010000
1111100010110001
1111111001001110
11110010
1111011010011110
1111011000111011
1111100000100011
1111111001000000
1011000010
111001111101
1010011100000
101000011010
111100011
1111101110010110
1111110100000000
1111111111001100
1111110100100111
1111111011111010
1010101001
1111010111
11101001100
11011001101
11001100101
100101100100
11000101000
1111110100111001
1111111101111001
10010100001
1111011011110111
1111101100101100
1111101001000111
1111100001001010
1111100111101011
1111100011110011
1111010100110000
1111010101001000
1111010110111110
1111111100010111
100011101010
1111101111
1011001011
1111111000111100
1111100110000110
1111110010001000
1111110011000111
1111111010100011
101110000
1111111011111111
1111101101
100110010000
101010001101
11111101100
1000000000
1111111111101000
10000010111
1111001
1111100100000111
1111110011001101
1111100001111001
1111011100000001
1111110000010100
1111101001100100
1111101010010010
1111101100110000
1111011101110100
1111101011100001
101110
11001110111
10001111110
1111111011110101
1111011010111001
1111011011101010
1111101101001110
1111011001100000
1111110100010011
1111111110101110
1001110100
10000000100
101001110010
101101100110
100000011000
1110010
1111111100011101
1111111011110001
1111111000010010
1111111010110001
1111100111011001
1111101000110111
1111001000100111
1111011101001010
1111101100100010
1111101000001100
1111110001001011
1111101100001111
1111101001100001
110000111
1111111000000000
1111101110011110
1111011101011100
1111010101111101
1111110010100000
1001000101
110001100
10001000111
10110110110
1000011011
110000010110
11000110010
11110110000
1111110110000110
100110000
1111110000011100
100110000100
11111101100
10110110
1111110111011110
1111010000001011
1111101111000001
1111101000010010
1111110011110000
1111111101100010
1110011110
1111111001001110
1111101010111001
1111100010111101
1111011010011110
1111100011111000
1111111001001011
10011010
10010001010
1111110101010001
1111111101010100
110000001
101110111011
101101100010
1111100110001100
11000101100
100
10001101110
110000001
1101100101
1110101101
110011111
1111111010101001
1111111010001010
1111101101101110
1111111110011011
11001001011
1111111111
10101011100
11100000
1111101110110100
1111101101110110
1111100110001011
1111111000100010
1111111101110101
1111110111010110
110111111
1111101011110011
1011001110
10010
11010001000
101011110011
110101011000
1000100110
1011000
1000101000
1111111000101110
10100011100
101011111010
11110011100
1111110101010110
100111000001
110011100011
100100001000
1000101010011
101101000010
101001010110
10010110110
10111001
1111101100001011
1111011000000011
1111100111100101
1111110010000011
1111110001011100
10111000110
10011101100
1111111110110101
11101000
1111101000111111
1111110011111010
1010100001111
110011
1111111110110000
11101001100
1111101011100110
10001011110
1010000111
101111000
10000010110
110110110111
1010100100101
1100001010101
1010100010111
111000010110
1111010110
101000100100
1001110011
100000001
1111110010000001
1111110101111001
111100110
1111111100100101
1101011110
1000010110
10001100
10000010000
1111101111011100
1010110111
100100111011
10011000
1111111110011010
1111111100001001
10010001101
100100011
1111111100000000
1111101000
1110110100
100010101110
110010001000
101111000100
100010011010
10000111000
1011010000
11010110100
10110110011
100010010111
1111111011011001
1111110110011001
1111110111001000
1111101010110001
1001100
1111101000
1111111110000010
1111111001110111
1111111100101011
1111110001100011
110101100
1111111110100011
1001
1111111111000001
1000101110
11111101111
11111110000
100111000001
11100000010
10101000001
10110111
1111111110000010
1111101011000001
1111110011001011
10010100111
11000100110
1111110101
111010011
1111101101000011
1111100011011001
10110101
1111011010111111
1111100111100111
1111100100010010
1111111010001010
10101011110
1111101110
1111101001111101
1111101111000111
1101100
1111111111011010
1111111110100111
1111101001111101
110001
10011100000
11101011110
10010011000
11101011
1111111010111111
1111110101011111
1111111100100110
1111111111000000
1111111111011101
1111111010111000
100110001001
110010
1111110110011000
1111111001011100
1011100011
1111101001101011
1111111100010111
1111111010000100
1111110010001010
1111010101001111
10000000100
1110110011
10001101111
1111111110110101
1111111111110000
10000
1111101000111010
1111111000111010
100101110001
1011011111
1111101100011001
111110010
1111110101100110
101001101
11110101010
1000010001111
1001110001011
10100110001
1000110011
1111011110
10001010001
100000011101
100011010001
1001110001
100001000111
110110
1111111000111001
101011011111
11011000100
1111111011011110
10111010101
100010110
1111111111001001
100110001
10101
1111111100101000
1111010011010110
1111000110101110
1110110001000010
1111100110101100
1111111101001011
1111110111111100
110110110
100100
1111111011101101
1111111010011100
1111011001101101
1111011110110111
1111110001101000
1111100000100010
1000101111
10000100
1111101000100101
1111000010100111
1111111101010110
1111100010110100
1111101010001111
1111111110001110
101000000
1111111100101011
1111111010101111
1000011
1111111011100010
100101
1000110010
1010111110
1111110111110011
1100001
1111110100111000
1111100010000100
1111011010101001
1111001100100110
1111011101100001
10011110001
1111011010100010
1111011100100011
1111100101011000
1111110001011100
1111101111111000
1111010101011001
1111010101010010
1111100110101101
1111111000100000
10100100100
1111111100100110
1101101
101000001
1111111010110011
