1111111111110100
1111111110110000
1111111110111000
1000101
1100110
100011010
100101001
10111001
1111111111100001
1111111110001110
1111111100110000
10110100
1111101000100110
1111100111111000
11100100000
1001001110
1111111011010101
11110
10111111
1111111110100010
1111111110100101
10011010
10101001
1111111111010000
11011001
1111111011110100
11101001
1111111111111000
100101001
1111111100101001
1111111110110000
10010010
1111110111111010
1111111000100111
10111111011
101111000
1111101010110100
1111011100011100
1111101011000001
1111100111000011
1111011010010101
1111101000111100
1111011000100011
1111111100011001
10010001100
101111000
1111100101110010
1111011001111000
1111011110010111
1111101101111100
1110001111
10011001100
1111111100110011
1111001
1111111111011011
101000101
1111111100111000
1111111111010100
1111111110101111
1110100101
1111010111011000
1111101001010010
1111110100110000
1111110001101111
1111111100001101
11011010111
11000100000
100000111
10111111010
110100011011
110010000001
11011010010
10000111100
100101010111
1010111011
1111101001001000
1111110100001111
1111101111011111
1111011010011011
110100111
101100011111
100011010011
1111111100001110
100011010
1111111101000101
1111111111111101
101100011
11000011011
1111110010100111
1111110000110111
1100110
1111101011001011
1010101010
101111100010
1010101111
11110101
1100011011
11000110
1111110011010011
1111110001000011
1111101100011000
1111111010001000
1111101000101001
1111101101001111
1111110101100011
1111110100101011
1111011110110111
1111101010010101
1110010100
11000110011
1111110000010110
100000000
10010011
1000111010
11001010111
1001111001
1111101101101011
1111100100111011
1111110101000010
1111101100110000
10110101110
1111111011101011
1111111100101110
1111111000011111
1111101111111010
1111101011010100
1111101111001011
1111101111001000
1111111000000100
1111110001010010
1111101000011110
1111110001111100
1111101100011110
1111011111010010
1111111101011001
1110110110101010
1111010000101011
1111011010111100
1111100000101101
1111110000111010
1111111111100111
100101011
101011000001
1111110110011010
100111001
1111011110011110
1100001110
1111101100100110
1111100100001111
1111101101101001
1111111110010000
1111111000100101
1111110111111010
1111110110011011
1111111000101011
111001
1111111100001100
1111101011100101
1111110001101111
1111111101001100
1111111100000000
1111110010111010
1111111001010011
1111110010000000
1111011011110101
1111010001000110
1111101001011101
1111101011000110
1001010
10011011111
1101100100
1111110011000111
10001011101
1111100111001011
1111111011011111
1111011001001001
1111101000011011
1111110110001101
101010010
101000111
111101000
10011010010
1110101111
1111001100
1111111001010010
1111101001101100
111110000
1111111101010111
1111110001101011
1111011111100101
1111101101111001
1111110001100010
1111100000010101
1110101010101101
1111110101010100
1111101001001010
1111111110011100
101100000100
1111110010101110
1111101101001101
101101011100
1111111101101010
110000100
10010011
10001010111
10001010
1111111011011110
1110011010
10100001010
1001101010
10000100000
1000010011
1111110101010011
1111110010011100
1111110001000111
1001111
10000010
1111110111011010
1111111011101100
1111110000100001
1111100111101110
1110111011110101
1011111001
1111101000001010
10011010110
1111111110011111
1111100010101011
1111110010100101
11011110001
1010011100
100010110
1111111001001010
1000011111
1111001100
10011001111
1100011100
10000001010
1001001010
1010
1000011000
11011000
1111111000110011
1111111000100101
1111110101100110
1111110011111100
1111111101001000
1111111001110111
1111011110111111
1111000010111001
1111001111010010
11011011011
100111111
1111111111011100
1111101101101000
110100
1111101101110011
100001101100
11111011111
11101100110
10110110011
11100111001
10000101010
1111101111100011
1111011110011001
1111010001001011
1111001100000010
1111100000000100
1001110111
1100111010
1111111101100100
1111111100011011
11100001
1111110000110000
1111111011000100
1111111001111110
101101000
1110111010010100
1100000110
11100
1111110001011111
1110100
1111101110110111
101111
1000101000
11011000100
10111110001
10110011001
1101111100
1111111001110100
1110111010101111
1110011010000101
1110010011010010
1110001101011011
1110111100011001
1111100010101110
1111101110001000
100101011
10001010111
1000100101
1111111100111010
1111101111111000
1111110101111011
1111101100010000
1111000011010001
1110100111000011
100101001100
11111000110
11001110101
1111110100010110
10010
1111100110111001
1011011101
101010111110
1111101100111111
1110110010011001
1101111100001011
1101011010110110
1101000110111101
1101101100000111
1110101101010010
1111010011110110
1111101000000100
1101110110
1010101110
111111000
1111111111001001
111111000
1010100
1111111000111011
11100000
1111011100010011
1111001110110011
1111110110101010
11000101000
1111101111111001
1111111111100010
1111110000010101
1111101111011100
1111100001111001
1111101010100010
1111100101101010
1110101110101111
1101000100011110
1100111111010101
1101101011111000
1111000011011000
1111110110010100
1111111111011111
1100011010
11100001110
100111010111
10100011111
1111111110100110
10101110
101100101
1111110110001001
101010000
1010011110
1111010111010111
1111101110100010
11010010001
111100000000
100011101111
1111101001101100
100110111
1111111110111010
1101110101
1111111011010000
1111001011101110
1110011011010000
1110110011001100
1111000000101111
1111111111001100
10000000100
10011000000
10010101110
1111111001
11100000111
100000101111
1001010000
111101010
1111111100
10001110101
11000101100
1000011010
1111001001
1111110001101111
1111111111101001
100110100
10101111000
11001110011
10100010
1111101011101111
1100010001
1111111100011000
1100010010
10101100010
1111011110100100
1100001011
1010101000
11010001100
101000001101
10101110101
10001000011
1001010000
111000110
11110010110
10010111100
1100010101
101001010
11010001
1000001100
1101000
100111000
1111110010110111
1011
1111110110110011
1111111011110111
11011100000
11110111100
1111101000101110
11100110100
1111111100100111
11101000001
100100001110
110001101010
11100000111
101000110
10101000010
1100110001
1111111100110110
1111111010100101
1111110001001001
1000111101
11100011101
11100101001
11011001
1111110110101111
1111110001100011
1000010010
100110000
1111101111011001
1111101010101001
1000000
1111100010000100
11000011101
111000100111
110111000111
10011001
101001001010
111000101
101111000100
10101011110
11011010110
1011111111
1010101111
1111110111110100
1111111010100111
1111101110100101
1111101001011001
1111110000000001
10000110001
1100011111
1001100001
1000001000
1110011110
1101001
101110000
1111110011111011
11011
111000011
1111110111111001
1111110111110101
11101110111
111010001001
11010001010
1111111011110010
110000010000
11110101
1001011011
1010
10110111
1001100001
1111111110101011
1111111000100011
1111110111001100
1111011111001110
1111100101111100
1111111111110101
10001111001
111001000
1111110111010000
1100001110
111011100
1111111110001001
1111111110110101
1111110100011011
110110011
1000001100
1111101000001110
1111011111101001
10010000010
11011111001
1111111010111011
1111101011110101
101010111011
1111111100100101
101111001011
1000100111
100101101
10011110110
1111111110111101
1011001110
1100001
1111111001001000
1111101000111111
1111111001110011
1111111000001010
100000
1000111101
1011101101
10100101100
1111110111110100
100110011
1111111101110010
10000111100
1111111001110000
1111111011000001
1111101101010000
110100011001
1001101
100011010111
1111110111010001
1011111011
10001
11010011110
10101101
100011000
100110000
1111111100010100
1111101100011001
1111111001000110
1111100001100011
1111010110101111
1111010100111101
1011110111
1011100000
10011100011
1000100010
1000000011
1100011
1011110
100010000
11111110100
1100100101
1111111000011011
101010
11000111000
101000010010
1110111001
1111111111100000
1111111010000100
1111110110101000
11001100101
1111010011
1111110001110010
1110010000
1111110111110111
1111111010001110
1111111110001001
1111110001001001
1111110110101011
1111110000101111
1111111001100100
1001010011
1100010000
1111110110110111
1111101101011110
10111000010
1111111010011111
1011011100
1100110011
110110100
110100111
100000110100
10101001000
11101001001
1111101001001010
111001
1101011010
11010010001
10111010101
1111110101
10111111
100111011
1101000011
1111111101010110
1000100001
111101110
1111101010000001
1111100110001000
1111111011100001
101111
110101101
1111101111101000
1101101
111011100
1
111010010
1111110111110100
1111111001111000
1100011111
10000001000
10101001111
10111110001
1111111001100110
10100100
101011011
100110100011
1011010100
11011100001
10010111101
1011010000
11000111
10001110
1111111100000010
1111110110011100
1111110000001011
1111011010011101
1111101010011001
1111111010100101
11000000
1111110010001001
11011011
111001101
1111111111101111
10010011011
11101100111
1111111101000101
1101
1001100011
1000
1111100101111000
10101100
101010010
101000
101000001100
1111111101100010
10100000101
1000101110
11011110
101100100
1001110001
1111111010010001
1111110110000111
1111111010001001
1111111001001100
10100111
1111110100110100
1111110101111111
1111111010110000
111011111
1000101111
111011
1111110100011101
1100000
101100110
1111101011111100
1111101001101100
1111111101000011
1111101101011101
10110001
101010010
11011110
1111110110110011
11010100101
1111111101001110
1111110110011010
1101001000
10010110110
1101011100
1011000101
1111110110000000
11
1111110100010011
1111100111001000
1111100111001011
1111011101100011
1111111111101110
1111111101000111
1111110100101001
1111110100001110
1111101111111011
110111110
10100000
1110111100110101
1111101101010010
10001000001
1111110011110011
1111111100010111
1111111101011011
1111111011000010
1000101010
1111100010101101
11101111111
10010001011
100111
1010100101
100111000
10100010110
1111111101010011
1111110010010001
10101100110
1011101100
1111110101110010
1111011010000100
1111101110010111
1111011010001100
1111100111010010
1111111100101100
11001011011
10010101
1111011110111001
1111010010010111
1111111010000000
1111111000011010
10010010000
1111011
100100001
1111111110111001
1111111110000000
1111011111011100
1111110100011101
100110010
1111100010101000
1111110111100001
1111111111010101
1111011110111010
1111101011111111
1111011111000111
1111110100111000
1111110001010011
1111101100110101
1111101110001000
1101100110
11010111
1111100101000010
1110111011111110
1111000110011011
1110111001101001
1111001011010110
1111110101011111
1111111001000110
111111111
10000001
1011101
10110
1111111101001111
10100100
1110110
1111111101000110
1100011
100001
110101100
1111111011110101
1111101111110010
1111010100001000
1111010111000110
1110111000111001
1110101110011111
1110111100101101
1111101001110111
1111101101111001
1111111010010111
1111110111101000
1111011001110100
1111011011111111
1111010101000111
1111011110100100
10110011
1111111111110000
101110
1111111011111000
100010000
