10010011
1100110
101010110
10111000
1111111011110011
1111111100011010
1
100001011
1111111110000110
1111111011101100
11000101
1111111010110101
1111111010010111
10110101100
11001100010
100110111
111111
100000
1111111101101000
100101001
1111111101110011
1111111110100110
1111111111101000
1111111100111011
11111110
10011000
1111111110111110
1111111100000000
100110011
11111011
1111111111110110
1111111101000001
101100001
1111111101001110
1011111000
1111111001001101
1110110101
110110100
1111110000010001
1111100101001010
1111010101010011
1110101011
1111011110010000
1111111010
111011000110
1001000100001
1111110111001100
1111101010110010
1111101100110111
1111101111101001
10001111010
10100100111
1111111100001100
100010
1111111011100001
1111111010110010
101010010
101010101
1111111101111111
11100110110
11001001000
111110100
10011111110
100000110100
10111001100
1111100000001011
1111111111110100
10001101001
100001111101
100001010000
100000010100
1010001111
100001110100
100100001001
10111110100
1111100110001111
1111101011101000
1111101010100000
1111011010010100
1111010000110111
1111110111100110
1111111111111101
11100011
1111111100101011
1100011
11001110
10101101101
101110001001
100011101000
10100010100
10110001101
1111101110110000
1111111110010011
1111101000100010
1111100110010011
1111111100111100
101010000100
110000000111
110001011000
11111100010
10100100111
11010011111
11011010001
10101000100
10000110100
1101111
1111011101111000
1111011010000011
1111010100100110
1111111010000111
1111101110000011
10011110
1111011
1111111110000010
100101001011
11110010011
100100001
1111111010101111
1111111011100000
111100100
1111111100001100
1001111111
110011100
11011000110
101011100100
11011000000
100111011000
11110011010
100110110010
111000110
1111101110111100
1111110010100110
1010010011
1100001101
1111110110111010
1111100111110100
1111111000001000
1111110100111110
11011101111
1111111101110001
1111111110011001
1111111111010001
101001111011
100011100001
1000111001
1111101110010011
10100
1111111110000111
1111010110110000
1111111011111110
1111110001101001
1111110001100000
1111101111001110
1111111111110101
1111110100010110
1111110100101010
10001100000
1111101101110000
1111111011010011
100111000
1111111110100000
11010111110
11111001001
11000110
1111101100000100
1111101011101100
10110111110
1111101100000000
1111111111010010
10011110011
11011011101
1111101101010011
1111101111110100
1111101011100100
1010010000
1111111111001100
1111101111000001
1111011100110011
1111100011100000
1111101110001000
1111111111100010
1111110111100110
1111111001101011
1010001111
11001000
10100010
100010010110
10001001110
1111110110
11000111
1111110011101010
1000110000
1111111001
1111111011010111
1111101011011001
1000011001
1111111101111001
1111110111010101
1111111000001110
1111010001111000
1111101011011100
1111111000110011
1100011001
11111100
1111101000100010
1111011010101100
1111100011011111
1111111111110110
100011010
1111111100110100
10011000110
11010111111
1001000
110001
11001000111
10100001000
1111110101000111
10111110010
1001011
1
1111111011001010
10011010
1111011000111100
10010110001
100000001010
10000011
1111011111010100
1111011111101001
111101100
1111110010011010
101101011
1111101011001010
1111011100000101
1111100101110010
1111100100011011
1111110101111001
1001010010
1001011
1111111101000001
1010110101
1111100111
1111100010
1001000111
11001010001
101011100
1111110111001010
110011111
10010000000
101110110
1111110101100011
100010010000
101000001111
1010011
1111110100100011
11111010110
1111110101110101
1111101011000101
1111110110001000
1111101110001011
1111111010111001
1111111111011001
1111110100001111
1111100000010100
1111101100100110
1111101100111110
1111100110110000
1111101101011101
101000001
101110100
1101100001
11111010
10001110111
1101000111
100110111
1111110101100101
10101111011
1111111110100011
11100011100
100010010111
1111110000101111
1111111110100101
1111111110000001
11000001001
101101100
1111100100000001
1111010010000111
1111110110100100
1111110101100010
1111110111101100
1111100001000111
1111111000001100
10101011
1111101010110001
1111101011100100
1001111111
1111110111111010
1111101111110000
1101111001
100000111010
11011111101
10011000001
1101011001
111100110
101011001110
11101110110
1111111111000110
101111000100
1010001010
1111011110000011
1101010100
10000011110
1111110101010011
1111111101100011
1111100001000110
1100110
11111011
1111111110001000
1111100001110101
1111100101101011
1111101101101110
1111110000000101
1111110111010011
10001111001
1111111100101100
1111110000100111
10001100100
11101110010
11001000010
1111011100
10110101000
1110001000
1111101100110111
10111111100
100101011010
1001100111011
10101010011
1111100000110101
1111001010001000
1001110101
1010000110
110011101
1111111010101010
1111111101101100
10100011001
1111100101100110
1111110011100000
1111100100111000
1111010010100110
1111001111010011
1111111111001000
10000110010
1111101011111101
1111101010101010
11000011
1111111111101010
10001000110
1010010010
11010101111
1111110010001010
1111100100101100
1111110111110010
10001100111
11110000001
1111101100001001
11000000000
1111010110000011
10011000
111010011010
1111111010101001
1111111010001000
1111101110100010
1111111011111110
1111111111110001
1111101111101100
1111001100001101
1111000101101100
1111001111101010
1111110111001001
1111111111111110
1111100001010111
1111011100001000
1111110110110100
1000100001
100000011101
10101100100
1111011100100111
1111011101001001
1110101111000111
1110101010101000
1111001101100101
10011000100
1111110101001100
1111111101011010
1111100111111011
1111110010110000
100100001001
1111111001100100
1111101110110010
1111111101001101
1111100100011111
1111110100100110
1111011000101100
1111010011001000
1111100111100111
1111111001010101
1011011010
1011100001
1111110101000111
1111011101010110
1111101000010100
11110011
1111100111100100
1111010001111111
1111010101111101
1111001000101011
1111000101011110
1110001101010111
1110111101100011
1111110010110010
1111110111001101
1111111010101101
1111110010010000
1110111011
1001001001
1010001011
11110110110
1111111000
1001000011
1010101001
1111111000000110
1111111010011011
1010110100
11000011110
101000001001
10000100000
1111101110110100
1111100000110110
1111000000110101
1111001110101101
1111000010011010
1110100001011100
1110110100010111
1111000000110111
1110110111000000
1110111010101110
1110110011110010
1111111110010110
101101111
1111110001101011
10011101111
1111111001010010
11110010010
1111111100101000
11101000000
1100011100
1111111010011000
1111110000011010
1000110010
10101100010
10001110010
11010111001
11100001111
10001010100
1111111100011000
1111010110101101
1111001110110011
1110101001100001
1111000000011001
1110111100010000
1111010001111100
1111100111011011
1111100011000011
1111110001110001
1111011000110010
100001
10000110010
1111111111111110
111010111
1111110001111001
100011101101
1111111111100011
1000100100
100100011
1111110010111001
1111110110010100
100001010
1111111001100100
1111111100110011
10011000101
11010000111
1101101111
1111110011001000
1111111001000101
1111010110101000
1110111110010000
1111100101100111
1111010011000101
1111110001100110
1111110001001100
1111101111111100
1111111001110101
1111111011001100
11011010101
111011011010
1111100101100111
1111110110000111
1111110101010001
11100110
10001010110
100111000100
10001101011
1111111101000111
10000011010
1111111100010000
1111110110010110
1111111011010110
10110001111
100101100000
1000100
1111111100000000
1111101110010111
1111100111000101
1111100000000111
1111101110011101
1111111010010011
1111011110010100
1111111110011100
1111110011010001
101101000101
10010101110
1100011110
11000100110
1000111110
1101011011
1111111011010100
1111110011010111
10111100001
10111110101
110101010
101111011
1100010
1111011111001100
1111101000101000
1111101001100101
10101000000
110010100100
101001011
1001110
1111110101111111
111010101
111000000
1111111010111111
1111100011110001
1111010111110010
1111100000001000
1111110100001011
100010110111
111100100
1000111110010
1011101101
1110101
10101111111
110101010
10100010110
1010101110
1100110100
10101010010
111000011
111100000
11110010
1111110111010110
1111111111101000
100110000
1111010101
100111110
111111001
1111111010000101
1111110111
10000000101
1111110111011101
1111110001000010
1111110011000000
1111111001011111
1001011011
11100010011
11101100100
110110110001
1100001010
1001101100
1111111011000101
111110101100
100011000111
1111110101101010
101011011
100011111000
100001011001
1111111101100100
10110010001
101100100
1111101101110101
1111100110110011
1111111101010101
10000100010
1011111100
1111101011010110
1110111
1101001100
11100101111
1111110100101000
1010100010
1001110110
100111111111
1111101010
10100001
110001000011
110110100
1000001101
1000110
111010101011
100111010
10101110010
11001010110
10010101110
1001000110
1001000011
100101110
1111110101000100
1111101010100111
1111110000110111
100110010
1111111101111111
1111110001110101
1111101001111011
101001100
11000011111
11110111101
1100010011
1001011110
1111100110
11011000110
101100100100
100100011110
11000001110
1010100000
1111111110001100
100110000
1001000100
11010010100
100101001101
100110110101
1001111001
1111111110110010
101001010
1111111010101011
1111111100100001
101100110
10111110110
11001011001
10000010001
100111000011
110011110001
101010110011
11011111001
111001000
100100000100
11100011
100000001001
111011101101
11100111101
101110011110
10101010010
101011110
101011010
1111111101110101
11101
1111101110001011
1111101011001111
1111111010001000
1101110
1111111011101010
11011111
1111111111111110
1111111101001111
10011000000
100011110111
110100111111
101011110101
110100101010
110100011011
11001010111
10011001100
10110111100
11111110001
110000010
1111111100100010
1111101010011101
1111110011100000
1101010100
1111111001010010
100011011
110101
100010111
1111111100000111
1111000100100001
10100101000
110101
1111101000111110
1111110011010011
1111110111
10100101
111011101
1111110101111110
100010000100
10110011011
1010011110
100001100001
10111001000
10100010100
101101001110
101011001110
10110111101
1110011110
10110011100
100100111
1111010011101011
1111111000011010
10111001100
1111111101000010
10110011
1111111010110000
111011
1111101111101110
11101111010
1111110000001101
1111010010101000
1111101010110100
1111110011111110
1111101111011011
111000100
1111111110110010
1111111001110001
1111101111110000
1111010000100001
1111101110011001
1110110000
100101111110
100110100100
101110010010
100000100001
1111100011100010
1011100
1111100001000011
1111111001111101
1111111100101010
1111111011010110
1111100
1111010
1101110
11111100
1111111011011110
1111110010111100
1111101000001101
110100111
1111111111011100
10000000000
111101010
1111110011001101
10000000101
10000010100
1111010101000100
111010
1111100101001100
1110111000001101
1111010101111010
1111111101111001
1111110101100101
1111111100100111
101001110
10101110000
1111100110110010
1111111111110101
11101100
1000011
1111111101001110
