1111111011100100
1111111100100000
10101110
100110000
101011110
1000010
100000010
11110001
11101001
1111111100011101
1011100
100011
101101111
111010011
1111111110100100
1111111011100111
1111111100001110
1100110
10110111
100010000
110100
10011001
11111001
1111111100000100
1111111100111001
10111
11100111
1010111
1111111100010110
1111111111001111
1111111011000000
1101001
1111110100011111
1111110000000010
1111001110000011
1111001001101100
1111010100110101
1111001001001101
1111011101100101
1111001000110111
1111000001100110
1110111101001110
100001000
1111010100010111
1111010101100000
1111001111111000
110011
1111110010111110
1111100001110010
1111100011100100
1111100001110101
1111100011110100
1111111010110010
1110100
10110101
1111111011101110
1111111100100011
110110
101000110
1111100010000111
1111011100000010
1111101000001010
1111101010100100
1111010001100011
1111110010111111
11101
1111011100101101
1111110011111110
1111101010001101
1110110100101011
1111001001011110
1111011001000100
1111001001000010
1111011011001100
1111000110100000
1111100000010101
10011011110
11001110110
1111111100011100
1111011100100111
1111100111001100
111110
1111110
101000011
1111111011001011
1100111
1111111101000101
1111010010011101
1111011010100010
1100000100
1111001110000011
1111101101000100
1111010100110101
1111111000101110
10000000101
1011000100
1111101111000101
1110111100100100
1110100011100101
1110101110011011
1110111100101010
1111001111110101
1110111001111010
1111001110011010
1111100110011100
11111100011
111000011100
11001111011
1111011101100110
1111101100101110
1111111101001101
100001100
101110
11100000
1111111001010010
1111101010001101
1111110101110000
1111100110001001
1111100100010111
1110111010
1111010100
1111111011000000
11100010
1111100000010001
1111001111101111
1111000011001111
1110101100111011
1110001001010101
1110011000110011
1110111101110001
1111101110001100
1110011001
1101000000
1001011110
1111111000100011
1111111110110100
1111110110010011
1111110010100001
1111011011001101
1111110000110110
1111111011000111
10111111
1111100100111101
1111100011000010
1111101111001001
1111111001001111
1111011111001000
1111111110000001
11000011010
10111000000
1000000111
10001000
1111110111100001
1111100100110111
1110111011101110
1111001001110011
1111010100101010
1111101100100101
1010111
1111111101001101
10110011001
1111111111101101
1111111100101111
1111111001010011
1111010111110001
1111111000100010
1111011000110001
1001011010
10111
1111110111111000
1111111101111101
10010000010
111010110
11101101101
10100000000
1001111111
1111111010000110
1100010000
1111110101110110
1111110001011001
1111101001000111
1111100110011111
1111011011010101
1111010000111011
1111110110000100
11110011011
10110000100
10100111
1111100100110010
1100101000
1111101100110111
1111110010001110
1111100100000010
1111101100110111
1111011011110100
1111010101111111
1011111010
1001101010
11110101
1100111010
11000001111
1111001100
11000011000
10010110100
1111111111101011
1111110011000010
1111110011001001
1111110111110110
1111111111011010
1111101110001011
1111010110011010
1111101100011100
1111111010101001
11001011100
1000111101
10100001001
1111110011011110
1111101101110111
100011000
1111110100011101
1111110010110000
1111011111101000
1111100011010000
1111011110110010
1111011111001011
100001111111
1111110110110100
1100100011
101101101110
101001011011
10011000110
10010011111
1010000100
111101011
1110001100
1000100100
1111100100101110
1111011100000001
1111100000010001
1111101101011111
101110
1000111001
10100010101
1111111101101110
1111110100110111
10001100100
1111111011101010
1001100011
1111110110110001
1111011110110111
1110111110011111
1111100011011011
1110001111
1000110001010
10000010111
10110101011
1111111100001111
10000000111
1111100111
1111000110
1001010100
10010100001
10000011010
101000011
1111110110110010
1111001011100110
1111001111111010
1111101011111001
10000001001
10111001100
111110010
1111100110011000
1111110110000110
1000110100
1001100
1111111010111010
1111110111011011
1111100111010001
1110101110101011
1101000010
10110011110
1010010010000
11100100011
10110110111
1111111110000001
10000110111
1111110000
1111111110101001
100101111
10001000010
101001110
1111010010
1111110000010101
1111001011001001
1111010100100001
1111111011111101
10100001011
1010
1111110111100100
1111111010011111
1111111010101100
10010000110
1011010100
1111111000000110
1111111101010010
1111111110101001
1110011011111110
1111011111011010
100110110101
10010011
11000000000
10000111
1111101110101110
1001101100
11111
11110110111
100110110
10101111110
10010001101
101100000
1111101001011001
1111001111001100
1111101101011010
1010100100
100011010010
1001101011
11110
1111111001011100
1000010111
1100011000
10011110000
10011001001
1111010011010001
1111011000101010
1111010001010111
1101010101
10010010001
1001100010010
101010011111
1001011
1111111111001110
1111111001101010
110101100
1111111001110100
1111111010110000
1111111110101011
111000001
1111110001101011
1111011000100100
1111010011011101
1111011100110000
1101011110
100000111111
10001100001
1100000101
1111110110000101
1111111101011000
1111110110011101
11011001000
1111111100111011
1111100110101111
111111
1111110110101100
11010011111
1111110010010011
11001011010
10111111101
1111101001111010
100000001001
1101011100
1111001100
10100000101
1111110100
1010001001
1001000001
1111111000010100
1111010000101101
1111010000000110
1111011010110000
1111111011111000
1101100100
10010000111
10111010100
1111110011100001
10110011101
1111111101110101
1111000111
1111111000101110
1111011100001111
1111100011110010
1111110001110001
1111110001011100
1111101111101100
100001010100
100111101001
1111110001111110
11011111111
11001001110
11101011
1111111101000101
101110111
11010000110
111000000
1111110010010000
1111100100010001
1111100011010101
1111011111011100
1111101000001111
111110011
11101100111
10101010010
1110110010
11000001011
110110110
1010101111
1111110111010100
1111101110111010
1111011111101100
1111100011000000
1111011101111001
1111111100111010
1111111010100010
1101010001
11000011101
1010100010
10110000
1101010100
1111110001011010
10010010
1111111101010001
1000000000
1111111011111001
1111100010110111
1111101001001010
1111100100100110
1111100101110010
110110111
10011100011
1111000110
10000011010
11110100001
1000100101
11101110011
1111111001111100
1111011010110011
1111100100011110
1111011111011101
1111111110010101
10011000000
110011011
1111110111101000
10001101010
1110111100
100110100
11110110010
111010111
1111111111110001
1111110101011110
11001011
1111110101101011
1111101100110111
1111010111101010
1111100110100111
1001001
101001001
10101001010
1100010111
1010000111
1111000100
1111110110000001
110011100
1111110110101100
1111110101110001
1111011001101110
1111000001101111
1111100100100001
1111111010110110
1111101011010110
1000100001
1111111100010010
11111110000
1111111100100111
10001001110
1010010001
1100010001
11000001
1111111000010110
1111110010000011
1111000100100011
1110110010000101
1111100100001010
1111111010000010
111011011
1011000101
100110011100
1111111111110000
1111110100000110
1111111010011101
1111111100010011
1100110
1111011111111101
1111100111100000
1111100000001001
1111011110010110
10100011001
101110011
1100000111
101011000111
10001110100
1111100011010010
1111100001000000
111000100
1111111111001100
1111111011000010
1111101010010001
1111001100011010
1110011011011010
1111001101110010
1111111100111010
1111110101110010
100000001111
1110101100
1111111011010010
1111110111100001
1111011110011001
1111111010110011
100101101
1111000111000001
1111000100010101
1111110000111110
111100101100
100000111001
1111111010100000
1011001010
1001011
101011110101
10010111101
11000000
1111110111010100
1101101100
1011101011
10001
1111101000100001
1111011001111011
1110111101011010
1111101011010011
1000101000
11010111010
100010010001
101110
1111101101000000
110001
1111111101001011
1111101000101100
1111000111000101
1110011111111101
1111111100100000
1011000100
1001000
10010000001
10011011
1111100100110000
10011010101
11000010101
1111110001000000
1111110010100000
1111100100100011
1111100010111100
1111100101001000
1111010000111100
1111100111111000
1111100010010100
1111011111110001
1111100110101111
1111111100000100
110001000
10011001100
1111111110111110
1111110101111110
1111110001001001
1111100001001100
1111100011000110
1111011010110101
1110111000111111
1111111110001101
1111101100101110
1111101000000101
1111111000100001
1111111110011011
110000
1111101110
1111110001011111
10000110100
11001110110
1111011110101111
1111010101000110
1111111011101111
1111001001011001
1111100110001110
1111100001101000
1111101000011110
1111111000000001
1101111
10011110000
10000110100
100111001
1111111111001111
101010000
1111111000001001
10001111111
1111110100111111
1111010011100100
100010100000
1111111010001110
1111001010111010
1111111100110101
11100000
101000
10001010100
1111100101001001
1000111011
1111011100011110
1111011111110110
1111100010100011
1111110111110011
1111110010110101
1111101110000001
1111101100101001
1111111000001011
11000101
1011110101
1111000011
10001110011
1011010000
1101011
10111010010
1111101110110100
1111011001100011
1111110011000010
1111101101100001
1111110100001101
1111101100010110
1101111
1111001
101010010
11100001
1111101000010110
1111001111000000
1111111011100001
1111110111110100
1111110110010110
1111111110000100
1111110000000001
1111110011000101
1111111010000100
1111010111111101
1111111100111101
10101001
1110110111
1000010001
11010100
1101001
1111110010100110
1110110110
1111101100000100
1111101101111101
1111111010100101
1111000010110111
1111101000111010
1111110111100000
1111111110111111
110011
1111111100000011
10000100
11010001010
100001000
1010011011
1000110001
1111101011111010
10111
1111101111010101
1111011101010100
1111100100000100
1111101110101101
1111110110001000
1111111000111000
11101011
10010111111
11100111101
10110100101
1111111000111101
10100001001
101011111
1010000001
1111111011000011
1111101111001111
1111000000100010
1001000010
101100010
1111111010101101
1111111111001100
1111111111011011
1100010001
1111110001101110
1111100001101001
1111100100111101
1111010110100100
1111100111101001
10100111100
1111101000010110
1111100101011110
11001011
1111111000010100
1111110100011010
11001001010
1011100111
10100001000
10001010100
10000011001
100101011
100000100
1100100001
1001001100
1001110111
1111010010110101
101111010
1111110010000000
100101101
100100110
1111111110101110
1111110
0
1111100100100111
1111111001000001
101101
1011000
1100010001
10110111100
111111010
1000001
1111010101001000
1111111000000001
1011101110
110101011
10010101101
1010000101
100000101
1111111000011000
1111101110010011
1111101011011110
1111111100010000
1111110111101101
11110001111
111101111
10111110
1111111101100010
1111111011011001
111001
1111111011111001
1111111111010100
101000100111
111011110100
1100111
10110100111
11100101010
1000010110111
100000110000
1111110100110010
1111110001110110
111000011001
1111010010
1101001001
100001001101
1001100011110
110000000010
101110111100
11101010010
1101110011
110101010
100001111100
1111111100011111
1111111011100010
101001111
10110001
