1111111110110011
1111111100110000
1111111111110001
1111111111010001
1111111010101100
10001000
1111111011101110
10110100
1111111111010001
10001111
1111111011101011
11111111
11101100
11011101
1111110111011111
101111
1111111101011011
110001
10011001
1111111101110101
101011
10111000
1111111111100001
1111111110010010
100100011
1111111100101101
1111111110011001
1101000
1000100
1111111100101010
1111111111101001
1111111111001101
1111110101000000
1111110101110111
110111110
1111111110010101
1111111101101110
100101010
1011001111
1111100001100110
1111001101110101
1111000010011101
1111010110000100
1111001111000110
1111010100001011
1111011100000001
1111111101000111
101011
1111111101000011
111010
1111110001100011
1111101100010111
1111111111001000
1111111100000011
10111
1111111111100001
1111111011101111
1111111100111100
111101
1111100100100011
1111011101110111
1111111000101100
1111111101011111
1111111101000111
1111111110101110
1111111100010100
1111110100000001
1111010011010101
1110110100000011
1110101110000110
1111010000011101
1110111010100011
1110101111001111
1111000011001110
1111000101010011
1111101111101001
1111110001100110
110111010
1111100011111001
1111101100101101
111011100
10000110
11000110
1111111011110010
100001
10111000
1111111111000001
1111100000111011
1111011101010100
1111111010011111
10111110000
1111010100001011
1111001000000011
1110111111000001
1111010010010101
1111001110001011
1110110011100100
1111010011011011
1111110110000101
1111101001001010
1111000011000010
1111000000110001
1110110001010111
1110111010101011
1110111001011111
1110111011011101
1111011111101011
1111100101100101
1111101101100100
1111100001001101
1111111111100101
10111101
1000011
1111111101010001
100100010
1111011011101111
1111110011001001
1111110000010111
1011101010
1111111101111100
1111111000000110
1111100010111110
1111010011101101
1111010011100000
1111011101010011
1011000100
1111100011100011
1110110100010011
1110100011001111
1110101100011000
1110111110001101
1111011110101000
1111101000000111
1010000011
1111101010010011
1111001011101000
1111100101011000
1111110001001010
1111111000001111
111100
1111111011000001
1111111111101010
1111111010010010
1111111000000010
10100011101
1110101010
1111111101110111
1000101
11110111111
10100011111
1111111011111001
1111111100110011
101101011
100111011
0
101010001
1111110
1111110101010100
1111010000101100
1111001100101110
1111010000111111
1111101000001000
1111010101101011
1111010100001111
1111001101001001
1111101111100100
1111101100111001
1111110111000011
1111111110010001
101011110
1111101111100100
11111100001
1101011000
10010111111
1100011110
1101111111
10010011100
10111101001
1011110100
101010010
10010000111
1111110000111100
1111101000101111
1111101110001010
1111111100101011
1100010
1111110000111001
1111111111111111
111010010
11110000011
1111111110100011
10010001
1111101110101000
1111111111101111
11010010000
1111010110001001
1111111101101100
10010001010
1111010101
101101000000
101011001
1111111100110101
110110101
101011100
1111000000
10011100
110001111
1111111100110110
1100111000
1111111100010100
1111100000001110
1111101001010101
101001100
11100011
1
10100100
100000000
10100011
1111111110000011
1011001
101000100
11000000111
100010100101
1111011011100000
1111100011001101
110010101001
10100110011
11100000
1111111011011110
1111101111100101
1111110001110010
110111001
1000101000
1010110010
1000010001
111000011
1110011000
1111111100100101
1111110111111010
1111110100011111
1111101101100111
1111110110010010
1111110111001010
1111110100100111
1111111010000101
1111111100010100
1111111010100011
11011101010
10100010
111101000
1111110010000110
1111011111100100
11001011001
11010111111
1111110101000001
10110
1111110001100101
10001110100
1111111110111011
1111110100110111
1111110010011001
110111101
1111111000111111
10010100100
10111111110
1101101011
1111101110
1111110101111010
1111111010011101
1101
1111111011110101
1111111011010001
1111111111111011
111101110
11101101001
10000110001
1011010111
11100001010
1111010110101010
1111100100011111
11100000011
10100010000
10101001101
1010011111
1011111
1101100101
1111111011111010
1111101011000001
1111101100111011
111000110
110011101
10110000111
10100010101
11001101101
1111110101110000
1111101110001000
1111101111000100
1111110111111101
1111110000010100
1111110000111100
1100011001
11000010111
11000011100
101100
111011011
100001100101
1110111100100001
1001110101
10100110001
11011001011
10110011000
100100111101
1111111110011000
1111111010011110
1111111000110010
1111111011110110
1111110111111110
10011011110
100001100101
100000000110
1001110110
1111100101011000
1111011000111010
1111110100100111
1111110101100111
101001
1111110100011111
1111111001101010
100001111001
1111110111000111
111111110
11001001111
1111110101011100
1111111010110101
1110110011000100
10010101100
1111111111111000
111110001010
11110010011
100001101
1010000110
1111110111111100
111000110
10101111101
11010001010
11100101011
11111010001
1000101000
1111101000111000
1111000011011011
1111000111111110
10110010
11001010110
1010100010
10000000110
110111000
101101
1111110010000110
1111110110001101
1111101000011001
1111110111011001
1111111110011101
1111101010001011
10101101100
1111100111101111
11111110010
110110011111
10001101100
11001011110
1010100001
11010110101
1011111001
10110111011
100011100010
1110000100
1111110111011111
1111000010000111
1110110001101000
1111100100101011
1111110101
1100001011
1011010010
1001111
1111111100001111
1111111111101110
1111110010010110
1111010001010000
1111101110101001
1111101011011010
1111110101010100
1111111110100011
1111111001001011
1111100111000100
11010010110
100001100110
10100010100
1111111111110100
1111111111000010
1011111
101001011
1010110010
10111110
1111111001100111
1111001010001111
1110100011001001
1111000011000011
1111110111011001
1100111001
111010010
111100
1111110010111110
1111111011010100
1111110100111001
1111100101010101
1111101010000111
10000110110
1111101001100110
1111101011011111
1111101111001110
1111111101000001
1111110101000111
1111101111011010
1111101000101010
110001111
1111110111110110
1111111010101001
110011001
1111101011
1111111011111001
1111101011100110
1111001010111001
1110011010101100
1110101001010100
1111011101011011
10000001000
10001011101
11011001
1101001
100110
1111111101001101
11111011110
1111101000110111
1000001101
1111101001000111
1111100110101011
111001101
1111101001111110
11111101
1011100001
11000010
1111101011111101
1111111001001101
1111101101000010
1111110000110001
1111011001
110111001
1111100000000011
1111000011011101
1110101011001111
1110011101010010
1111100111100101
1111110110011111
1000010001
111001000
1111111100000001
1111111101011111
1011000001
10111010001
100001100000
101100101111
100000100010
1000
1111101010111110
1111000011111111
1111001000011100
1111111001111100
1111111100100110
1111111001100000
1111011110
1111100111011001
1111100110010000
1111011011101101
1111110011111010
1111000100000100
1110011011100001
1110011111010010
1110111100110100
1111011110000100
1111011111110010
1111111101100000
10010011101
1111111110111110
1111111011000011
1010111011
100000110001
10000101001
11011001100
100110011011
11100000001
10010101101
1111011100
1001111000
1111011011011100
1111110100011100
10011100000
110011111
11001111110
1111101000101110
1111010111101100
1111101101011100
1111101111000001
1110111111111100
1110101010001000
1111010000111001
1111110100000110
1111101011010101
1111111100011110
10000101001
1011101101
1111110100100110
1111111111001111
1111110000010111
1111111011011110
1111110110111110
1111110010100011
10011100
1111101111100111
1111111011110100
1111111001111011
1111111111000111
1001000100
1011111100
1111111010000111
100001011100
100011000100
1111010100110110
1111101111000001
1111111101000001
1111101110010001
1111010010001110
1111011111010100
1111101001100110
1111101111001100
1111101100101110
1111100101010111
1111111101011010
11101001
1111101101110101
1111111010110000
1111100000111000
1111001110011011
1111011001000111
1111100101110101
1111111100011010
1111011111101011
1111100000011000
10
1111011111010001
1000001011
110110001
1111111011111011
1111110011001111
11110101110
1111011000111100
1111010101100111
1111001101111101
1111100000100011
1111111111100101
1111100011010110
1111100001111101
11
1111111010110000
1111111001000111
1111101111001011
1111110101001111
1111100111111000
1111101111110010
1111100111001001
1111001100110010
1111010000100111
1111100010111100
10111001
1111011101111101
1111100001011100
100011011
1111011100001011
11010
110001101
1111110110100001
1111111100011101
1111110110010010
1111000100010101
1111010001010100
1111011111011110
1111111000111001
1111100110111000
10010
110011111
1111111101101011
1111111001000110
1111100110101111
1111101110110010
1111100111110001
1111111111101111
10011111110
11001
1011001010
111011011
1111110101100100
1010111010
1111100001111100
1111101010100111
10111011
1111100100111010
1111110010111001
101010101
1111110111010011
1111111010000101
1111111101010011
1111010010010111
1111111111101001
10110110
1111111100101000
1001011001
1100010
1111111110101110
1111111000111110
1111101000011110
1111101011100000
1111111010110000
1111111010110001
100111110
100000011
1111
11001110
1101101011
1111111010011010
1111110011100111
1111101010000110
1111101100000110
1111111110011010
1111110111001101
1111101100001001
10011100
100001110
11000110
1000001000
1111011010100101
11000000100
11100101001
1000000001
1000001
1111101000011101
111011110
1111101101000000
1111101111100111
1111101111110101
1111101100101100
1111110101000001
1111110110111001
1111110101110110
1111111100011010
1100111010
1111111111001111
1111101010100010
1111100100111011
1111100111101001
1111110010110010
10111110001
1011011101
1111100101011111
1111111101111011
1111111101101101
1111111111101111
1111111110100001
11000100110
1010111110
11101101010
100011010111
1111
10000000
1111110110100111
1111111001110010
1001110001
1111111011010001
1111110110010010
111000010
1111110111000000
1111111000111011
1110100001
1011001100
100111
1111101101110001
1001001100
1111111101110011
1111111111100000
1111101001
101111100111
1111110111110000
11101101
1010010
1111111100110100
1111100101011000
1101001011
110010100
101010110
1111111101000010
1100001111
1000001000
10011000001
1111111111010111
11010111111
10000110001
1111111111111111
10001000
1111111100001111
111101110
1111111011111011
101011010000
100000000110
111110000
1111111111011110
1000010110
1001111111
11000000
1111111001010010
110010
100000111
1101010
11111111
1111111110101010
1111100110010000
1111101110101111
101001101
1111010001
1111111110
10100111001
101111
1111101011000001
1100010001
1111111111001000
1111111111100011
100100
10000101011
1100011000
1001011
100100111001
100011101001
1111111011000100
1111111101111111
10111001011
1111111101010101
1111111101101000
1110010010
1000111
100001
1111111011011001
10101011
100100100
1111111110001011
101001100110
1000100010001
111011000
100000101000
11100111010
101000001011
101000100111
10010111
1101111000
1010100111100
110000100001
10011111101
110000001111
101110100101
1001000010
10111000101
1111111000000100
1010100
10111101101
101100000111
1111111011101010
1111111111100111
100001000
101010111
