1010100
1111111100110010
1110101
101101
11100111
1111111011011100
100010
1111111011100111
1111111111110001
100011
10001011
10101
110101110
1010011100
110011011
10011101
1111111100101101
11110001
1111111111101111
1111111011011111
10001111
1000001
1111111110101000
1111111111011100
1111111011000111
11100111
10001110
101000
100111011
1011101
1111111101000111
1111111011010100
1010000100
1110101011
101010111000
111001010011
101010010010
111011011111
1001101001000
1101010010110
10001101000010
10101100110001
1111100111100
1011100000010
1100110100010
1111000011001
1011010101110
101001001001
10110010010
101010100
10011100010
10110011110
1111111111101111
1100111
1111111100111111
1111111100111101
100010000
11010011
110110
1111110101001000
11100101001
11101001010
11011111000
110000111101
10101100
1111100110111110
1111001
11110110111
10011110001
1111110100000101
1111101001
100100110100
101101011110
100001010100
101001110101
100010001001
101101000011
10110110000
11110011110
10011110111
100011011110
10011111011
101001011
1111111100100101
100110100
11111100
1111110100000001
111101111
11000101001
1111111110001010
1010111011
1110000101
1000101101
1111111111101101
1111110010101111
1111101101100111
11001011101
11010001000
10010010110
110010011
1111111010011010
1001111
11011110001
1100011101
1001111100
111011001
1111111010100011
1111101000110110
11010011011
11100001
100100001101
10011101
1111111011110100
11100101
1111100010001100
1001101010
1111110111000010
1101001101
1001110000
1111111100011100
1111110111001100
1111100101101010
100000001
1101010111
1011011101
11110101
1111101110111101
1001111010
1111110010100100
1111011110010000
1111111110110110
1111111111001010
1111110100111101
11110101111
10111111110
1111110101110001
1111111011001100
100111001110
101111101100
10100110
1111111011100100
11001110
1111100101011001
1111111010101110
1101101000
100101100011
10001110011
1111110111100111
1110101110
111011111
10011010111
1101011001
1111110111111100
1111110111000010
1111101010100110
1111111100100111
10011111
101010001
1111110101111000
11000100
1110010011
1111111010011000
10000100000
10010111
1110101110
1111111010000000
1111110100010110
1111111100001000
100101010
1111111010011011
11110111010
1001000000
1111010100
1111100111011011
1111111010000000
1101001
11100111
1011001000
1010001011
1001011100
1111111010001001
1111110111100010
1111101111101000
1111110010000111
1111110110000100
1111111000111111
1111111011111001
11000000110
101111111
1111010001
1001101000
11101000110
101110001001
11010111001
111010100
100100001100
1111111011011000
11100001111
11111010111
111010010
1111111011000111
1111111110100011
1111110111010010
1111111010111000
1001000010
1100010010
1001111000
10001000100
1111111110011110
1111101111110011
1111111101111001
1111110100100101
10000001
11111110
11000111100
10101111
11011101111
11010001010
1111100011
10100101
1000111001
100110000110
101100011110
100110110101
11110011
1111111001010011
10011001010
1111110111111100
1111111000100000
1011001000
100011101
1111110110111000
1111111100011110
1000000000
110111101
101010111
11000000011
100011000
1111110011100000
1111110100101110
1001010011
110001000
11011001000
10110011110
100110011
1011101110
1111111010110010
1111110001001100
1101111111
11110011000
100111000111
101100100010
1111111010101000
1111101100101001
1111111001000000
1111101100010100
10000011010
1111110000101100
1101101100
1111110011010111
1111111001000000
1111111010011000
1111111001110001
1101110010
1011011000
100110001
1111011111010001
1111000110110110
1111000001100111
1111011001111101
1111100110011001
110001
1111110001000011
10111010100
100011000000
1111001101
1001010110
11110001101
1000100111
110101111010
1111111111010111
1111010001000110
11001011010
1011000010
1111111101101011
10001101110
1111101101101010
1111110111011000
111100110
1000000110
11001100
1011000011
10010000000
1111111000111000
1111000101000010
1110101010110000
1110110011101001
1110111001010011
1110101011001111
1110101111010101
1111001010010011
10111101
1111111000011111
1111010100010110
1111011101101101
1111100111111110
101111100111
100011001001
1111111101110000
1111101011011001
1111101100000111
1111111011011000
110100000
1001110000
1111110111011000
1111101111000010
1111110110111111
11110001
1000001100
1111110010
111101110
1111111111011001
1111100100111100
1111010011000101
1111010011011010
1111011001010011
1111100011111111
1111000110101011
1110100111110000
1110001100011001
1110010010101011
1101111000110110
1110100110110010
1111111100110110
101000000000
11100011010
1111111110110000
1111011110110011
1111011100100011
1111110110101110
1111111010010000
1111111001000111
1111110110111101
10011000
11010101110
1011010010
1000010011
10000110011
1111000100
1011011101
1001
1111100110110110
1111100110010100
1111100100101100
1111110100110111
1111100001101010
1111100000011110
1111000100010000
1110010100011100
1101110011100010
1110000011010111
1111101000010000
11000110101
1010110100
1010100100
1111011000001010
1111011001001111
1111111001010000
1111110111110010
10110001100
1111111111001111
111100
1111110100011000
1111110110010111
1000100011
1101000110
1110010000
1101011
1111111110010110
1111011011111001
1111011011110100
1111110100100000
1111110110111000
1111111000000110
111011001
1111110000000010
1111010110000100
1111011101011101
1110001111010101
1111000010110000
1111110100100111
10010111
11010011101
1001101010
1111101101010000
1111111010001100
10010101001
101011100
1110110011
1111110101000101
1111111000011111
1111110011100000
1101000001
10100000
1000100111
11110000
10
1111101001100011
1111100000100011
1111101010110011
1111
1111111100111001
100011010
10010000110
100
100001100010
1111110101001111
1110101111011100
1111010110111000
1111100011110010
11010001011
11111010101
1111010100
1111110110101010
1111101110000111
10011010110
1111111001010101
1111110010010111
1011010101
1011011100
10011000100
1110110110
1010111110
1001100011
1111111110101100
1111110010100000
1111111000001111
1111110010110010
1111111101001101
1011000001
10000110111
10000000100
1111111011111010
1111110110000110
1111111000000111
1111011100100001
100011001010
1111100011100010
1111110001001100
100100100111
100011000101
11011101
1111100011000100
110011110
1111010110001000
1111101010101111
1111111000001110
10011001100
11010100100
101001100011
10111000110
10001000100
100011011
1111110101111010
1111101000001111
1111111100100000
1111111010111100
11111100
1111110111100100
1110110101
10100110010
1011100
101111110
1111011001110000
1111010100010101
1111100011011000
11100010
1111101011
1111111110011110
1111101100011100
1111000001010111
1110111111111101
1111010110101101
1111000111101111
1110100001111100
1110110100011010
1111011011010111
1111100100111001
1111101001001011
1111101100110111
1111100001101111
1111101100000111
1111100010101001
1111111011101011
1000100110
11011100010
1111111100011110
1100101110
101111100
1111111100100101
1111111110000011
1111011010010101
1111000100101000
1111101010100111
1111111100111100
1111101001010010
1111011110100110
11010011110
1111111100001000
1111011110101001
1111100011110101
1111101101110010
1111000011110100
1110010101101011
1110001000110100
1101101010100101
1110001000101010
1110011110010001
1110111111110001
1111101000110001
1111110101101001
100000100
1000010110
1010100010
10101111001
11010111010
1111110101101100
10011010000
1111101100101111
1111101010101111
1110110101110000
1111101000111100
110111101
1111111000000100
110001100111
101001001011
1111111110101110
1111101100010011
10110010
1111110000110100
1111111000011101
1111100110010001
1111110101000011
1111101010001000
1111011101100011
1111010011011110
1111011101000110
1111100100110000
1111111000110001
1000011100
1111111010110111
11101001
1111000110
10100110110
1111111010110011
10100110000
101001011
10000000010
1110111111000110
1111100100110111
1111111111010101
1111101111010001
101001100
1111111001000001
1001101001
1111111101000111
1111111000100110
1111110100100101
110010111
1010110100
10010110011
10010111111
1111111110110110
1001111111
1100110
1100100001
1111111010010001
1111111111111001
1000010
1101011001
10100011100
1101010100
11000110100
11011000
1111111100111101
1111110010111101
1111100110001100
1111001010
1111111010000110
111001011
1111101010011111
10110111101
11101111010
1111111001111001
1101001
10000011110
1111111011010010
1011111000
1101010100
10100101001
1110110010
1100100110
10000100111
1011010110
1111111011101101
1111111000011110
1111111000
101111100
10111000010
11100101
1111110110110010
111010000
110010100
1111101111110000
1111110011100100
100101111
11100101
1111111101101100
1111100010010010
1011001101
1010001110
1
11100100
1111101101100100
10101110
10100111010
10100111010
10111101000
101110100
1111111111001100
101010101
1111111111011001
1111110111100001
1111111010111010
110001110
1010100000
10111000000
11100111010
1111111001010111
11111100001
1111101110100011
1111110000000101
10011000
1111111111000011
10110111
1111111100100101
1001000011
101011101010
11110000011
10110101011
11010110000
1110111001
1111011111
10001101010
1011010010
10001111110
1001110000
11100010011
10011110000
1101101110
1111111110010010
1100011
1111111100101111
1111111000001111
10011001010
111011010
1111101110110011
1111111111001010
1111110010111100
1111101100000001
1010010110
1111111100011011
1111111100100001
1111111101101101
1111110111101110
100000010111
10000010110
101000111010
1010101011
100000110110
10001111001
100110100010
10110011001
11001100001
10100100000
10011101110
11001100000
1000000
1111110000101001
10010011
110110001
1111011111001010
101001101
10000101
11010001000
1111111011101110
10000011111
1111011000000000
1010011001
1111111111111111
100001001
1111111100110000
11001100011
10100000
10111101001
101111001010
11000000001
10001000101
10010100111
101001011000
100111101110
100010100001
100000000011
11101111111
1111111110100011
1110001100
1001111100
101101000
1111111101111011
1111111110101110
1111111111011111
101111011
100011100100
11010101100
100011011000
1000100000
10010
1111111101101100
100110011
1111111100000110
1111111111101010
10011010000
101001100001
1111111111011010
1111110101010111
1111111001000100
1111101111000110
1111101011111110
1111111010000111
1111111110111001
110001001
11001110100
1010101101
10010000101
1000
1111101011101111
1111110010010100
11011000
100110000
10101010010
1010011010
101000111101
1101111
1111111110111001
1111111111011100
1111111100111110
1100011
1100111
11100101
1010111
10110111
1111111101000101
1011111100
10000000101
1110000111
1111110101010001
11011111000
10011101101
1110101001
1111111011010111
11010101101
11001100011
1001111011
11011001000
10001000100
1000001100
1111001010000001
1111100000000000
1111110001111110
100010111
11100101
11011001
1111111101011110
1111111011111110
