1111111011111001
1111111101001111
10011011
101010100
101001001
1111111011000101
1111111110110011
1111111101011011
1111111010110011
1111111110101011
1111111010101000
11101100
1111111101000100
1000110101
100010100
11010010
1110101
10011100
1111111110110010
1111100
1111111110010011
1111111110011101
11000111
1111111
101000111
1111111011010110
1111111011101011
110010
111
1111111010101010
1111111011010011
1111111010110011
1011010101
1000010111
110000011
111000010
1110010111
11001100111
10110111100
11000010101
10110010101
10100000111
10000010111
100111110100
100110011110
111111111
1111011010000101
10111000001
11000010010
1100111111
1100111010
110001101
1000000
1111111100001110
1111111101110001
1010001
1111111101010101
1010001
1101010000
11100100100
100000010111
10111111100
10100101111
101011000
1111110010010110
1111011111100111
1111001000001111
1111001010101011
1111011001011111
1111100110110110
1111100100101001
1111010000110100
1111010111010001
1110110110001011
1111000110011000
1111100001010101
11
1111011111011111
1111011111000000
1100100
100001111110
10101000100
1111111110010010
1111111100010100
1111111011010101
100101010
1111111011011111
11111000110
1110100100
1111111011101010
1111101111110011
1111000111110011
1110101
1111011101010000
1111101011000110
1111100000011001
1111011011010111
1111110100101100
10010011011
1111101000011000
1111110011000010
10110110000
11101100
1111101011000000
1111100010100001
1111110011111010
1111010100111011
1111111110000101
11101001
100110010100
11011100110
1111111100011100
10101101
1111111101101100
1111100101001010
1111110010001010
1111011110111101
1111011001011100
1111000110101000
1111000011011001
1111001000000000
1111001011001011
1111000010101100
1111101111001011
1111100111011011
1111111000010000
1111101110000111
1111111010111100
1111110000100010
1111110000111110
1111111001101110
1111111011011100
1111101011110010
1111101011000010
1111010110111101
111011110
1111100110
1011111011
11001101111
1000111001
1111111110000111
1111111100000110
1111100110100010
1111111011110000
1111101111101110
1111001010111100
1111010101110000
1111010001101000
1111100011111001
1111100101110101
1111101011101111
1010111100
1001101101
101000100
11010001
1111110111101011
1111101111100101
1111111111000111
10110011
1011011001
1110010111
1111111011110000
1111111110100110
1111100100010011
1111110011011000
1111110110000000
1111011011010110
1111110110110110
10011111
1111101101010011
1111100111101011
1111111000111101
11000101011
1111101100001110
1111110100111110
1111111001110001
1111101000110001
1111011010111011
1111101110110100
1111110111110010
1111110011001000
1000110001
10011111101
11100011000
100011101100
100110011011
100110000011
110010000011
100010001100
1110011010
10100100011
1111111111000011
1111100001101011
1111110010100100
1111101100110111
10100111011
110010000
1111100000000001
1111110111001001
1000111100
1111101110111100
1111100111110001
1111100100111010
1111110011110000
1111101000010000
1111110110010100
1111111111001101
1111101000110000
1111100100010010
1111110101111101
0
11001010101
100000111011
100101111110
100101001100
100000111000
1111111100111101
1000110000
100001000
1111100101001000
1111100100101010
1010000100
1111010111111101
100000010001
100111010110
1111101000001100
10100110001
1100111100
1111100111001001
1111110110011001
10010000
1111100110011010
1111101010110111
1111111000111111
1111110101000101
1111110100011110
1111111101010110
1111101010111000
1111111010001011
1111111000101111
11110001010
11101101001
10110001011
10001101110
1111100111
1110000001
1111111001101100
1111100100010110
1111100001100000
1111100110001101
1111101101110011
1111100100010001
1111111011000101
1111110101010010
1110110010
1111011111110111
1111011101100000
101011011
1111100001111010
1111100110011001
1111101110111110
100110110
111110000
1111111001110101
1111111111101000
1111110110101100
1111010110001001
1111011100000101
1111110010101010
10110001100
10111100010
10001101101
10010110011
10001100110
10100000000
1111110101110100
1110100001
1111001010100101
10111111
1111111001000000
1111110011111110
1111001111001011
1110100000
1111001101110010
1111101110010111
10011111010
1111111001101110
1111110100010001
1111110110010001
1011111
101000000
1110111001
110010100
1111100100110101
1111010001010001
1110111010101110
1111001000000000
1111110001000011
1111100110
1101110000
1000110001
1001110100
1001100
1011111
1011100111
1111010011000000
1111100001010001
1111110111111001
1111101101000111
11110000100
10110011110
1111101001111011
10011000111
1111110011000011
1111110111111001
1111111110111010
1111101110110101
1111101101010011
1000111000
11100110001
1111111010101111
110011000
1111010101000011
1110111110000011
1111001000001111
1111111101000010
1010000010
1111110111101110
10010100
10100111011
101010010001
100011101001
100111000110
1111011000100101
1000001011
1111111011000110
1111101011000101
1111101101110101
10101111110
111000101
11001011
11111001001
111111001
1111111100011011
1111111001111101
101111011
1000101101
1001001101
100101101
1111111001110110
1111011000000001
1111000101000100
1111001001100100
1111101110110010
101100001
10100110110
11010011001
1000100011
101011001001
110110110011
10011011010
1111001111001010
1111111001111011
1111101001111011
110011000
10000010100
10001110
1111101100100000
111000101
10011001111
1111111111111000
10110100011
1111111011011010
1111111010101100
1110011111
1111000110
100010000001
100010110
1111110001000001
1111010111100011
1111000101110001
1111011110000011
1111110110010101
11000101000
10011101000
10010010011
100010000100
10010110111
1111111100010100
1111101110011011
1010010000
1010
11001101100
1111110011000100
10011101101
1111000110001111
1111110111001110
10110110010
1000011100
10011011000
1111110111100000
1000101101
10101101101
10110010100
10111110000
1011110011
1111101111100001
1111011000111001
1111010000011000
1111010001111001
1111101011011011
1111111100110010
10000000101
10110010000
100101001
1110001111
10000111
1111100000011110
11100111
11000
10110111111
101100
1111110101111111
1110111001000101
1111110101001000
11100101101
1110111010
10000101111
1111111100000000
11111000
1110101001
1111111110011010
10111010001
100101100
1111110010101010
1111101111001100
1111010011100010
1111011000011111
1111110001110111
1111110000010100
10010101
1111111
1111110011010110
1110110111
11101011011
1101110101
1111101000000010
1111100010001010
1111111001111010
1111101100101001
1111100101111010
1110110011101100
1010110110
1101011000
100001111010
1100111100
10000011
1111111111001100
110110010
11001010
110100110
1111100011010011
1111100111110010
1111100000110111
1111100101011000
1111010111001010
1111011110011010
1111111011011101
1001001100
1111101011
1111111010111111
1111111111110011
1111101000010100
1111111011110011
1111010011100010
1011101001
100110010
1111011011010010
1111101100111101
1001001000
1111110100100100
1000000000
1111111111011001
1100111111
1111110011011110
1111111111011100
100001001
1111111101111000
10100100
1111100111000000
1111011110010001
1111111011101100
1011010
1111110110011100
1111100101011010
1111110100111001
1111110111000101
11111110
1111111010000000
1111110111110100
11011001110
1111010110
1110111101100111
100000100011
100011100110
1111100011010011
1111100101001111
1111101111011010
1111110100001101
1111101111110000
101010101
101101010
1111111010100000
1111110110110111
10010011100
10110000110
1111101111011100
1111001010010110
1111100010111101
100100111
111110101
110110100
1111111001101110
1111110111111101
1111111111010011
1111110101110100
111100110
1010011001
1010001100
100000011110
1111110110000011
10100010111
1111110111011001
101001100110
1111101110110101
1111110100110010
1111101111011011
1111011101010101
1111110110001011
1111101110011110
1111110101100101
1111110101111011
1111111111100100
1111111001001000
1111111011011010
1111011100000101
1111110101111001
101010110
100110101
1111001111
101010011
1111101110010000
10010110111
1111110100111010
1101101000
1111110101010001
100000100
100000101101
1100010101
11001100
1111111111010000
100010101100
1111101111001100
1111110110001010
1111110000111111
1111111110110011
1111100110110110
1111101101011110
1111111001100010
1111111010101111
101000011
110011000
1111111000100110
1001111011
1000111110
1101111111
1111110101011010
1010111011
1111101101011010
1111111110011100
110000011
1111110000010101
1111111110000110
1111011100000100
1111110100101011
1001010000
110110010
110101010
101000
1111100110001100
1111011100101101
1110101001
110001111
1111000100
111101100
1111110000010010
1111111011101100
10110001
111110100
1111110110101110
1111110111000100
1111110011001101
10101
1111101111111101
1111111011011110
1111110100011110
1111101011101111
1111100001010000
1111101100111110
1111101011001101
1111110000000101
1111100010001010
1111100110011001
10010111
100000000101
10010111000
1111110110110010
1111111100000001
1110100111110110
1111111101110001
1111101010001010
10011110
110001011
1001000011
1111110100010001
1111111100011111
100100111
101101100
10000000101
1110000101
1100101110
1111110011011110
1111110011010111
1111100101100001
1111110111100000
1111010000000100
1111110011010000
1111101011001011
1111101111100001
1111011001100111
1111100011001111
1111111111010111
10111110110
10011100000
100111010
1111111011111010
1111111010100110
1111100010101101
1111001100010010
1111101101101101
1111111001100101
1111110110000011
1111111001101110
1111110000101100
100110000
1110101011
10001001000
1110001101
111100101
1111111100111100
1111111011100000
10010001
1111011100100101
1111100000010000
1111111011111010
10000011110
11100000001
1111100000011110
1111100011111010
1111100000111111
1111100010101010
10001000
1111111100111011
1111111101000000
1111101101111101
1111101100101011
10100011011
10010011010
1111101000010000
1111011100101101
1111100000011010
1111111110000100
1111111101010011
100100110
11010110000
1010111011
1111111010110001
1000100
1111110101010010
1111101110100100
10011000010
11000010100
1111110010111100
1111111010
110100000
11110010
1111111011000101
1111101010001000
1111011010111001
11000001
10100010
10101000
1110100011
1111110101010101
1111100011000001
1111101111010110
1111101000100010
1111001011000101
1111100001111110
1111100001100110
1111110111111111
1111110101001001
1111110001000110
10001111
1111110111110111
1111101001001111
1111100000000010
1111101110110011
1101100011
101101110111
1101101001
1111010111
111000101111
110001010010
1110110011
11010001101
1111110111010000
1101011
11111010
1111111100111110
101001111
11101100100
11101100000
1110101110
100100101
101100001
11000000110
11111010100
100001101100
11100101011
101111001100
11011011001
100110001001
100111011100
10001110001
11111000
101111101110
100111000001
1000001111111
101011110111
101111001001
10000100100
1111101100100010
1111111000100101
1111111010111110
1111100
1111111100000110
1111111100010001
100101101
1111111011101001
1111101101111001
1111010010110111
1111101000110101
1110110101001111
1110111010011110
1110110000010001
1010110101
10000000010
11001000
1111000001111101
11010011110
111111
1111101001010110
1111011110110100
1001110110
100011000
1111100110
10001110111
10100100110
1111011111111000
1111111011110100
100111100
10111
100000011
