1111111011011101
11010
1000111
11101001
1111111011000011
1111111010101001
1111111111001001
1111111101101100
100011010
100101
1111111011010110
1111111100001011
1111111100110011
1111111000110101
11111110
1111111111010001
10110
1111111111111010
11011111
1111111100110110
1111111011010011
100010101
1111111011100010
1101111
1111111111111010
1111111101110001
1
1111111111001101
1111111110110001
11010110
1111111100100001
1111111010110110
10011011
1000110010
100010000100
11100011101
10001100000
100000100111
10110100111
100000100111
101111100101
101101000010
100011111100
1001010110001
1000100011011
1000001100100
100111010
10110100001
101001010100
11010001001
11011111101
10110101000
1111111101011010
1111111101110100
1111111010100011
1111111011010111
1111111101010011
100100101
1111111100111001
11111000001
11011001100
100101101
10110110101
101000110011
11010101010
1000001101010
111100011000
1000000110111
1010100101011
1110001000001
10010001001001
1101100110110
1001101110001
100000111011
1111111111101110
1010100001
1111111001110100
1001011110011
101010101110
101000010000
1101001010
1111110100011111
11011100
11111001
1101101
10010011
1111100000000011
1111110011100110
1111111100111011
1111110001000111
101100100110
11111101110
100101101101
101010110101
110110010010
111011111101
1101001010001
1011010110110
1001110111011
1001011011110
1000100011010
111101110011
11001110
1111100011111010
1111011110111001
1111111010101110
10011101001
1111101110011000
100111110100
10101001111
1111110111101000
100111110
1111111111000001
1111111111110110
1111100110101111
1111011100100101
1001111010
1000010000
101100000010
110111000010
100100010100
110010101000
1000010110001
1000110111110
1001010111110
101000111100
10000101111
1111111111010011
1111011001101010
1010011010
11010101
1111101011110100
1111110000110010
1111011011010010
110011101
1111010001100111
10110100011
101000100000
10110101010
10110111100
1111111100011100
10011
110010100
1111010000110110
1101101101
1111110011110101
11110010
11101111011
100000001
1111111101011111
101101100101
1000100111111
101110111110
111000011101
11001000010
1111000011
111110100
111000000
1011101001
101011101
1111100010001110
1111100100100110
1111110100100101
10110100100
1111111011
100111001
1111101
1101011
100000101
1100110010
1110100111
110001101
110001011
1100010010
10011000010
1111100010011100
1111101101111001
10100001010
100101000101
100000000110
11111011000
11000100100
1111111010110110
1011101100
1111101100111110
1111101011110110
1111110011111000
10001101101
1111111100101101
1111101011111101
1100001111
100001001110
10100101
10011111001
1111100011100011
10000100110
111100
101101010100
1001110010
1111111011000001
10000111100
1011100101
1111101010110001
1111110110010001
1111110111110001
101010101
100010010000
101011010110
11010100110
1111101100100110
1111011001110001
1111110010100000
1111101011001101
1111110000100011
1000010111
1010101010
11011010111
11101011110
100011000101
1100100010
11000110111
10010111010
1111011101100111
11001010010
100000010011
101100111011
1100101111
1111110000110101
1111111011110111
1111111010011111
1111101101011001
1111110010001110
1111101010011110
1111111111101101
10111111000
110011111001
100001110010
1111101101100010
1111100101110100
1111100100011010
1111110001100111
1111111100111111
110111101
1111111111100010
101001101111
101101001010
11110111
1111111111101101
1000111010
1111010011101111
1100000100
10000101111
10000010001
1111111000000001
1001110111
1111101111001101
1111110111000111
1111111001001000
1111101000101100
1111100000101011
1111100101000100
1101000110
111100110
101001100111
11000100001
1111111110110011
1111101010110111
1111011011001110
1111101011111000
101010001
100000000
1111111110111110
1100011011
10110000100
101010101
10000111010
1111111001000100
101111101
10010101011
1111101101101101
1011110011
1111110010011011
11100110101
1111011110101110
1111110001001011
1111010000101100
1111111111011101
10101000011
1000001011
11001101000
11110111110
100000101000
10010000000
10111001101
10101010011
1111110001001110
1111110100101101
1101010110
1111111001000000
1111101101101110
111001010
1111111010010111
1111110010101101
1111101111100001
1011000010
1111000001000101
10000001100
1111101100011101
110110011
100100000101
1111111011001110
111110011
111010111
1111010100000111
1111111100101100
110111100
110110011
10110011001
11001001100
10101101110
100001001010
100011111000
1101100010
1111101010111111
1111011101100100
1111110000111010
1111100100001100
1111100110111010
1111110100100101
1111100100000110
1111110101100011
1100111100
1111110010110110
1111100001001001
10110110001
11110110110
100001011
10000110011
100010000
1111100100111001
1111100111111100
1100001
1111111000001110
10000110
1001011010
1111010101
1101011011
11011110100
110011001110
100001100010
1000110
1111010110000110
1111100000100101
1111110100011000
10000101010
1111110101001110
1111101011010101
1011101
111001011
111101011
1111101010011111
100010100011
110100011100
11111100110
1111111010000101
1111111101111001
100011011001
1111111111010011
1111110001011101
1111110110011000
1111111100000101
1111100000011001
1111010111001011
1111100101101011
1111110101100010
100001101010
101101000110
10000011010
1111101110001100
1111011110101101
1111101010011101
10101111
1101111010
11111010101
1011010
10000011111
1111110111000101
11110000011
11101110101
11110101111
101101101001
100101110110
1111110000111100
1111110101111001
1100100100
1111101101000101
1111001111010101
1111100100100010
1111100101010111
1111001000011010
1111000010000111
1111011011001001
1001000
110001001101
11100111011
1010010110
1111101110100111
1111101011000110
1000
1111011111
100000010100
1110101010
1100111011
1111110001100010
101000110
10001111101
11001001000
1111110001000111
100100010
11101110000
1111101111000000
1111110011011000
1111101111100000
1111110100101000
1111100110000101
101000001111
1111101011101001
1111011110101111
1111010010110000
1111100010000100
1111110101001000
1111111000001101
1111111100001110
101100010
1111110000011101
1111110010110100
1111111110100000
1100010
11110011
10100011100
101101111
1111010111110000
1111010111000101
1111111100100000
11001100101
10101100100
1111110011001010
100000111
1111111100111100
1111111010010001
1111101100111011
100001100101
1111110101101001
1010111100
1111111001010001
1111110110011100
1111011100000000
1111101100011000
1111011010101001
1111101001010011
1111111011011010
1111100110101000
1111100101001000
1111101010010100
1111110000111110
1111110101010011
111000111
10011010
1111101010010100
1111011111011001
1111101101011011
10001000110
11011100010
101011010110
101001011000
10000010
1111111011010000
1111101101110011
1111111100010001
11000011
1111110011001011
1101000
11111101001
1111010111
10001001110
10000100100
110100001
10000011011
1001011100
1111101011001110
1111110010101011
1111110100100000
1001001100
10010100
10100011111
1110001001
10110100111
1111111000000111
1111111110100001
111010000
110101110000
1111111000000001
111001110
10000000001
1111111010011110
1111111000010100
1111111100011100
1111100001101011
100010001111
100000111100
101100101001
110001111101
1010001011110
1001110111000
101100110001
100010100011
10000111100
1111110111110011
1111111000101110
10110001111
100110011110
101101011110
1001000001011
101101111001
11011001001
11110
11110001110
111001110111
111010001101
1101001101
1111010010111000
1111011111100011
1111101001110111
10111001111
1111100001000100
1111011000010000
11000100110
1011001101
100101111001
11001011111
1001111111110
110110011001
1000001111011
100111010000
1101010010
1011100101
1000101010
100001001101
110000101011
101101111101
110110000010
100100111001
101100011010
10101100101
101001000001
11000010011
1111110000110010
1111010001100100
1111100101100100
1111011101010101
10110110
10101101111
1111100011100000
1111110000110111
1100010
1111010100100111
1111010011000011
111011010
1001001010
10111100
101011111010
10111110010
1111111110010110
1111110001110111
1111111100001110
1111011110
1111110101011111
11110
10011110001
10100101001
100110111111
1111111000110001
1111101000100001
1111111001111000
1111010111100100
1111001100010100
1111101010000000
1111110001100110
1111110110000011
100111
1111011011000001
1111111001001110
1111101000000001
1111110010000011
1111101010111010
100000101
11010010
1111101111110011
11001100
1111110010000101
1111100110001001
1111110100100110
1111111011101000
1111111111110010
1111101100010011
1111110101
11010011000
101001001
1011111000
1111110011110100
1111011011000011
1111111011100011
1111011010111101
1111110010100101
100000111011
1001000
1111101111100111
1111110101000101
1111110010000101
1111110100100100
1111101110001001
1001111000
1111011111010010
1111111001100101
1111110111100100
1111101111001011
1011001010
1111111001000100
1111110010010111
1111110100110101
1111111000011010
1111100001
100010001
11011111100
1100100101
101111100
10001111101
1110011011
1101001111
1111110101110110
1111101111101001
1111111100101100
1101101100
101
1111111101001001
100011110
100111001000
10110001
101010001001
1111110110111011
1111101011001100
1111101010101000
1011110
1001110011
1010100100
10100110101
1101000001
11101000100
11011001111
1111110001
10101110110
11001101000
10100011000
11001110001
11110000
101000
100100
1111111000111001
1000101011
100011000
1111011011111001
10110000
1111111010101111
1000101
10001
100111001001
1111101010110010
1111100001110111
1111101010101011
1111101110010111
1111100111001010
1111110111000001
1001010110
100101111000
101001000001
111001011011
111100000111
10011110001
100111010011
100100101000
11110000111
10010000101
1010011010
1111111011110011
1111111110001000
1111011001100110
10011110101
1000101110
1111110001100001
1111111100011101
1111111010101000
1111111101010011
11000110
1111100110110101
1111111100010110
1111111101101010
11101110
1111111001011001
1111101001110000
1010111000
10001010101
11100011000
101010010011
10110111000
100000011100
10111110000
1110110100
11001100101
10011001110
1111111111100000
11111011001
1111011110111111
1111101001000110
10011010111
10001010101
1111101110101110
1001011001
1111111101110001
1111111101001010
1111111011101000
1111111111110101
1111101011001010
1111010111011010
1111101000101101
1111100010011111
1111110110101000
1100110
1111100001000100
1111101111100100
1111110000111001
1111110000011111
1111110100110011
1111100110100111
1111011001011001
1111100110010000
1111010101001110
1111110101110000
111011101
100110010
1111100000001010
1111111000011110
1111110100011111
1111101001001101
1000000100
11101001
11100111
1111111111001001
10011010
1111111100101011
100111001
11110101000
10111111000
1111110101101011
1111111101010010
1111111110000010
1111111101110110
11011000
1111010100111101
1111010010110001
1111100110001010
1111010000010100
1111100001001110
10010110
100100110
111010111
1111110011111010
1111111010011100
1000011010
100001110
11000111101
11101111
11101010
100110101
1111111110000110
