11110111
1111111101110110
1111111101000100
10010110
100010
1111111111100010
100001101
1111111110001011
101011000
1111111100011000
1111111101111100
1111111101111110
1111101111000110
1111101001001010
1111111010101010
10011101
10001010
10000110
1101001
1111111100011100
1111111101011111
100111011
10001100
1111111110111010
100110010
1111111111110000
1000110
1000010
1111111110011000
100111010
1111111111101110
1111111110010100
1111111010011101
1111110101011111
1111101101011110
1111011001000110
1110111101110011
1110010101011101
1110011101001001
1110111000001110
1111001000010101
1111110011101001
10000110001
1111010110101011
1111001110010001
1111010011011011
1110111110001010
1111011101111111
1111011000011110
1111011011010101
1111011110101001
1111011010110110
10111111
10001110
1010100
1111111100111110
11010101
1111111011001000
1111111000010011
1111011110010001
1111010010000111
1111001011000010
1111000000000111
1110110101011001
1111110010011001
1111101110101000
1110111011110000
1110110111111111
1110101111010010
1111111011110101
1111110010000111
1111110001001001
1111001001010010
1111010110110101
1111011111101101
1111001100100111
1111110011001010
1111010101000011
1111010101111100
1111000110100101
1111100000001011
1111011001000001
1000100
10011111
11100001
1111111111100010
10101011100
1111100001100010
1111100010000101
1111111000001101
1111111101011001
1111001101011111
1111010110100010
1111000000
110010
1111010111001011
1111101111001111
11110000
1111110110001111
1111101101101101
1111010001100010
1111000010100000
1111010011011010
1111100001000011
1111101110001011
1111011011011101
1111111100100011
1101110
100000101
1101001110
1111111101101101
1111111111110100
10000000
10110010
11010001001
1111111000011011
11101111111
1111111111100010
1111110101000111
1111101000100001
1111101001000000
10000100000
1111111101111000
1111101111111111
10010000010
111001111
10100100001
10
10011101100
111101
1111111101010000
1111110110000100
1101010111
1111101110011011
10011111
1111110010100001
111100100
10000110101
1111101101110111
1111110000101111
100101100
1111111111000101
10110111010
101011000
1000000001
1111100000011010
1111110101110100
1111111101110100
1111111001100100
110111
1111101101101101
1111110111010011
1010101010
1111111011111000
11110101
10011
1111000100
1111110000110011
1111111111000011
1111110110010010
11000011100
10100011101
10000110001
1111110101101010
1111110101111001
1101101111
1111101000
10011000101
111000
100001000
1111110011001001
1111001001011011
1111101001100101
1111010101111110
1111100000111110
1110110
1001000010
101010001
1111110011000001
1111101100011111
1111111010000001
1111011010000100
1111010011100101
1111011110000111
1111011100011011
1111011011010010
1111010101011010
1111101100010000
1001100110
1111111100100010
10011101111
10110001010
1001010100
1111111010111011
1111110111110111
1111111100110110
10101011
1111101011100101
1111010101001001
1110111110111111
1111101001000110
1111111010110001
1111011001110011
10111101
1011000001
11010010011
100101101
10111101
1111110110110101
1111100001000000
1111010100000100
1111011101100101
1111001110011100
1111011001000100
1111110100001010
1111110000111000
1111101110110111
100111
100001111100
1111111101011110
1111101011000000
1111110110110001
111011110
1111110001011001
1111100001010101
1111101100010111
1111001001001100
1111101000111111
1111100001000000
1111101111111100
1111110111010000
1000011010
1101011000
11011001101
10001110100
10000101001
1010001100
1111111100111010
1111011111100100
1111010001111010
1111001001100101
1111011010001001
1111110110100101
11100010
10010000
1000000000
100110111001
1101001000
11110010001
11010000110
10110000101
11100101
1111111010010000
1111011101110110
1111011011101110
1111010100111110
1111010001110010
1111111100011101
1010
101110000
10001000010
1111010001
100110100
11110011010
11001111
1111101001011100
1111011000001001
1111010101100111
1111100111110101
1111100100110111
1111111111011111
10000000000
11011001111
1101000000
11100001111
11011011100
111000010101
101011111001
100011010001
1111110011111110
1111111010011111
1111111010101010
1111000000110111
1111101111001011
1010100111
1111110011010110
1111101111011011
1111101111110010
1001101011
1111111110100101
11101001000
10111011001
100000011111
11000101011
10010000100
110110110
1111110001011101
1000011010
1101001101
1110010011
10011000001
1111111111
11010111001
110000001000
1011011100101
100110110001
1000101000
10010101011
1111111100100110
1111011011010011
1111111110111110
1111011100110011
1110110110010011
1111111111000010
1111111000100100
1111100100100100
1111111000111100
11000010111
1000111010
101110011
100111101010
101101011111
100101100111
110001011
1111111001000111
1111101010101110
1111110111110110
10011100010
10110011001
11010010001
1010001100
10001010000
1100000001001
110110100101
101000000010
11101111001
1111111100100011
1111110101110101
1111110110111001
1111001000100111
1110101010111010
1111011101100100
1111110010101101
1111101111011001
1111111001000101
11100001
11000110
111001110
100011000010
110100001111
100000010101
1111111100110101
1111110100001001
1111101000010110
1111101101110001
1011000010
10011101011
100100111011
10010100001
100011011011
101110110001
101111010100
1000010001001
10001100101
10101110111
1111111001010010
1111110000100100
1110111111010100
1110101100011111
1111010111101100
1111110011111111
1111101011000110
1010110101
1111111111100111
1111111001001010
1110101010
11011110100
10111011010
1001010010
1101111111
10101011
1111100010111001
1111111111000100
1111110011001010
10101110110
1111111111000001
11100011110
10010111001
10001101010
1010000010
100110111111
1000111000
1111111110000001
1111110110001001
1111111101110011
1111011010000011
1111100101000110
1111011011111101
1111101001011101
1111010100100010
1111111110100010
1111110001000101
1111111010111111
11001011110
100101000001
100101000000
11110111011
1001000101
111001
1111111000001010
1111101111000000
10000000011
1011100
1111101001000011
11101010
10111101
1010011101
100011000110
11010000011
1010001011
1111110001011010
1111110000110110
11010100100
11101100
1111100000111101
1111001111011111
1111000110001110
1111101011000111
1111110010010011
1000101000
1100010110
10101100001
11100000011
11111100010
101011100001
11000110
1111111010100100
1111100100110010
1111110000110010
11100001
1111010011000000
1111011010000001
1111011101011110
1111100001011101
1111101010100010
1111110110111101
1111100011111101
1101111101
1111110011100010
10011010111
1101101101
10010111
1111000100110001
1111000001100101
1111011001001111
1111110011011110
1011101000
10010011001
11111101110
1000001011
11001100110
10111100000
10100100011
110100000
1111110100001001
1111100001000100
1111011001100010
1111001100101001
1111001001101010
1111010011001010
1111000100111001
1111110100010110
1111110100000010
1111101010010011
11101011001
1111101000101001
1111111110110001
1011100110
1111100111011101
1111100101011101
1111000111011001
1111000101101001
1111111000001101
1111111011000100
1110111011
1001100010
1001011010
1111111011
11001011010
11000100100
1100001011
1111110010001111
1111011111111101
1110111000101110
1111000111100001
1111001100011001
1111011101001100
1111111110000100
1111100111101000
1001000100
1111110011100010
1111111010110101
110001100100
1111100000000010
1111101001001001
11001
1111011010101011
1111100110101100
1110110001000100
1111101110000100
1001111011
1001100100
1001101101
11000111011
1111011000
100100101100
100010011111
11001001000
1111101101000011
1111100000100110
1111000011000000
1111000100100100
1111100100011100
1111101111110010
1111110001010101
1001100101
1111100111011001
111111111
10000011000
100101011000
10011000001
1111101001
11110110000
1111010110011111
1111101000100101
1111110010101010
1111010111101110
1111111010111010
1000010101
1111111011101000
1101001011
11110011100
100000010011
11011101110
1110111100
11000010011
1111110010011000
1111101111000100
1111100001111010
1111011111111110
1111101110001100
1111101111100001
1111110100
10100110000
10010111111
1100000001
111000
10010011100
100001100
1001011010
1111111100100010
1111011111000000
1111100111110110
1111110011101101
1111110101110011
1111110111111110
1111111101101001
1111110101100100
1111111000010100
1111111000111000
111110101
1011011001
110111001
1111110010000100
1111111101001000
1111111011101111
1111111010100010
1111111110101101
1001101
1111111011011000
1000101001
1101111001
11101010
10000101110
1111100011011101
1111111110000011
1111011000
1111111101000110
1111101010
110001110
1111100001000110
1111100101101010
1111010000111000
1111101000110101
1111110000011101
1111110100111010
1111101111000100
100111110
1111111100110101
1010110110
10010
1001110010
1000011101
1010011
1111101111110100
1000111101
10011100
10001010111
1111110000001110
11011010010
1000010001
11000111011
1111100101011101
1111101001101010
1111100111100011
1111111111001000
1110101011
1001111010
11000001001
11001100011
1111110100001100
1000100100
1111110001010101
1111101101001000
1111100111100101
1111111100010110
111001101
101000001
11011010
100000011110
10110010011
1111111010010100
1111110011100000
1111111000111000
1111111111100110
1001001
1110110111
1111101111101100
1111101110011010
110001111
1111011110001001
1111110110010011
1111111000000110
1001000111
1111111111101101
1001101
1100101110
11011110011
1111011001111010
1111100100101111
1111011110000111
1111010111101101
1111110110101110
1111111010001100
100101
10010011
10111101100
101001000000
10110000010
1110001010
10101111100
100111111
1111110010101011
10000011
1101100
1111111001101110
1111110111001010
1000000010
1111100111001010
100011010011
101110000101
1100010
101000
11110
1111110001111100
1111011110001001
1110111000100011
1111000001011110
1111000100011110
1111010010000000
1111011010000010
1111111110101001
1001101000
1011101010
1111111111111111
10100101000
10110111111
101000011
1111110101011101
1111010011000101
1111110001010100
1011000011
1111001001
1111111101001001
11001011110
1010100010
1111111110101100
10100011001
1111111101100100
100000001
1111011
1111111111010010
1111110010010100
1111111100000000
1110101110111011
1110011110010111
1110111100000111
1110100010111010
1110101000101011
1111001010100110
1111010100010000
1111001111101101
1111010000001100
1111100000101011
1111100101101110
1111100010110000
1111100111011011
1111100001001110
1111100101110000
1111010111001110
1111001011000001
1111001111111000
1111100101110000
10010100001
1111100101100011
1111011111011001
1111110110000001
1111111111000111
10011101
100010001
1111111101001010
1111110010011000
1111111001110111
1111001010101110
1110100111010010
1110101000110110
1111000001110001
1110111100000011
1110111011000010
1111000010101101
1110110000100101
1110101100101011
1110001000000100
1101110000100111
1110010111011010
1111010100101110
1111011010010111
1111100100111101
1111001101001100
1111001001001100
1111000000001111
1111111100001001
10000111111
11101001
101001111
101000110
1111111111010110
1111011
1111111100110001
11000010
100100000
11000100
1111101100001011
1111100110000010
1111010111001001
1111101111010010
1110111110100111
1111010010100100
1111111110111011
1111100001011001
1110111001100101
1111001100110011
1111110000000111
1100110
1111101111111100
1111110111011111
10011011101
1111100001011001
1111011101100111
1111111100011001
1
1111111111011111
1111111111110100
100100110
