1111111110010111
1111111110111101
1101110
1111111010101111
10111001
1111111110011110
100111001
1110100
1111111110101100
111
1111111010110110
1111111101111010
1111110101010000
1111111000111100
10001001101
1111111111010111
1001010
1111111101001111
1111111011001101
1111111100001100
1111111111010111
100000000
11100
1101001
1110001
1111111111010001
10000011
10010111
10111
1111111110010100
1111111011101000
1111111111010000
1011101011
1010000100
1111101100100000
1111011001011000
1111010011010011
1111001100100010
1110111001100001
11111010
1111111100
100001001111
1011111
1111111100000001
11010110011
1000100001
1111010010001100
1111011001100011
1111000111110101
1111100111010000
1111110101101001
1111110001010101
10111000
1111111
10100
11001011
100011010
1101110
100101011
100000110110
100001101011
1111101001010011
1111010010000000
1110111110010110
1110011000000001
1110001010111001
1101110110101101
1110100000111110
1110111010101110
1111001111000011
1111000111000001
1110110011110111
1111000100111100
1111011001000011
1111101110110011
1111001101101101
1111101001100100
1111000011111101
1111011110000101
1111101010011101
1000100111
11000100101
1111111110001111
100101110
1111111111011011
1111111110101111
1111101100101100
1100111100
11010110000
1111100100010100
1111001000010110
1111100101110011
110111000
1111000000011010
1111000110111110
1111011011100000
1111111100000010
0
101100010
1111011011101101
1111011011000110
10010000010
1111110110
1111111010100101
1111111000001100
1110101001
1111101010001000
100110011
100111001001
11101000011
11010000001
11001111
1111111100101011
10111111
1111100100101000
1111110110010000
1010010010
1111101111100111
1001010101
1111111111001111
1111111001011111
1111110111100100
1111111000010101
10110111000
10111010011
1110011001
111001
10010100111
10000101
1111111101110111
1001000010
10101110100
110000
110001100
1111110100110010
110001111
10001011010
100111100001
100001111111
1010011001
1111111101001001
1111111101001110
1111001111111110
11000101001
110111001
110010101
1111101011110111
1111111001001110
11001100101
10111111000
1000000000
11100101101
10110101100
10001001111
1110001
1111101100101100
1111101110011011
111100001
1011111100
11001010011
10100100011
1111110110101001
1111110001000011
1111101100010000
1111100110111011
1111110001100010
100000010111
1111111011011101
10010111
1111111010010011
10100010110
100111100110
10111001111
101110111101
1111110100111110
10011001001
100010101111
1101111010
1111110011001001
1111101011
1101111101
1110000101
1111111011
1111110010110000
1010001000
100100111100
101111000011
111011011011
100101000100
1110001111
1111111000001111
1111011011011011
1111001111001110
1111101111001101
1111010100
11100001100
11000100
1111111110001110
101000
101000100111
11111011111
1101011001
10011110001
11111010011
100010110110
10001101111
101001
1111111101010100
10010011010
1111111111011110
1111101111000111
1111101100110111
100101010
11001100010
1001000110010
1010001001100
101111010101
11000100101
1000100110
1111110000100110
1111011001100011
1011101000
111010101
11000111110
11101111110
1111101011
11101110110
101100111001
11100110010
10000101001
111101101
10011100010
100011011100
100000101110
100100000001
100010000000
10101011101
1111111010010101
1111111101101001
1111110111011001
100110111011
100100111100
1001011010001
110111100001
10101011010
1001010000
1100001001
1111111110001100
1111111001011010
1111010011010101
10001000001
100011100100
11011110
100110000111
10101011010
11111000000
1111110001001000
110110011101
11011010010
110110000
100100110100
1000010000001
101110010101
101010010000
1101001111
100010100
1111101110000011
1101010000
110010100010
100001011100
11011010010
10000011010
1111111110010111
1111100001001010
1100010000
1110101
100110010
1111101000111000
101001001101
100100101101
1011000010
1011001111
11111010001
11010010111
10000100010
111110010100
11100101110
1110100111
100011000001
100001011001
11100111011
11101111110
1111111010111111
1111101111100111
10100100
1110110100
100110110110
10110111011
11000010011
10011
1111110111010111
1111110111111000
1111011011110100
1111101100111010
1111110101000101
101111010
10100001000
10111001010
1111111110100100
10100001000
100011001100
110110101001
101001001101
101101001
10110110111
10010010
11100110
1101
110101111
1000100100
1111111101010111
1111101111011110
1111111000001101
1011111011
100010011
11110011110
10100000011
1111101111101010
1111101101100100
1111101100011111
1111110000110011
1111011111011011
110000
10100001
101000011111
1101010111
1111111011101101
10000000100
100011101111
110011000001
100100110101
1111111101101110
1111100001
1111111000111100
1111101100000010
1111110100001000
1111111000011111
1111111011101111
1111100011100110
1111101100110101
1111110010001101
1111100010001011
1111110101101010
1111111101110101
1111111000111110
1111110110000011
11101010
100000101
1111011001110101
1111110000101011
1111101101000110
1111101011001110
100001001010
1111100010111101
110111001
10001110001
110100111111
101001111101
11011111111
1111100000100010
1111011011111111
1111101010001011
1111010100100100
1111100000001011
1111101001001011
1111101010010010
1111110110000001
1111110001011100
1111100111011001
1111100100111000
1111111100110001
1101111000
1111111000000001
1111111101111010
1111111000110100
110001000
1111101101010111
1111100100010011
1111100110101010
1011000001
10011010010
1111111100101000
11111
1111111111001111
100101000011
10100011011
1111111000111010
1111011011100001
1111100011001100
1111010000100001
1111001111000001
1111011101011101
1111111100111001
1110110001
1111111110111111
1101000
1111111011101000
1111101111010010
1111100110100100
10000100010
11001101101
11001101110
1111111101011111
101110010
1111100110110111
1111110001000000
1111111101010011
1111110110001111
11011000111
1111111110111000
101000100
1101110010
1111101010011111
1111011111100001
1001011111
1111101100101011
1111011101101100
1111011111000100
1111100011101001
1111110011001010
10101011110
11001101000
10000100110
1000001111
1111110011101000
1111110100000111
1111101011111111
1011111101
111001101100
11010010100
110011011
1111110001101000
1111101000111111
1111110011000001
1111111010100011
1111010001010101
1111111101100100
1111110011010001
1111111101011100
1111100000111000
1111011101110111
1111110000010101
111011011
1111100110010110
1111111010010001
1111100101111101
1111111011010001
1101000100
10010001000
11110110010
10001110110
1111110000010001
1111010101000011
1111101100111000
1111110111011000
1110011000
10101001001
1101001000
1111110110110100
1111110110100110
1111110101000011
1111110001110111
1111011101010011
1111011001111101
100001000100
11101101101
1111111111010101
1111101000110001
1111100011110110
10110111
1111111001010000
1111111011010000
1111110001110110
1111110101101010
1111110110011110
1110001011
110000000
1111111011
10111101110
1111101000100101
1111001110010110
1111110011110000
10000010011
1011001110
111100111
1111111010101011
1111110010110010
1111011101100001
1111110100001101
1111101010010110
100111110
1110000001
101011111010
101000111011
11110010001
110000010
1111101100010000
1111100011110010
1111111101001111
10101001100
10110011101
1010001111
11000001111
11001011011
11101010110
11101101010
1111111100010001
1111100100001001
1111011100111110
1111100111110000
1111111000011100
1111110010011001
1111101000010000
1111110111001101
1111101001111101
1111111001010110
1111111111100111
11000010001
1111110110000111
111110011
11011001011
1000011011
1111110101001110
100000011101
11011101010
101011000
1111111101010001
100101101111
100001010001
100111100
10100101100
10100101000
11101101101
1100000
10111100010
1111111101011110
1111101110111110
1111110000000001
1111110000001100
1111101011100100
1111110100010110
1111111000001001
101
10011010
111111111
10100101110
1101001111
11100001000
101101001100
11010011
11100100
100001000011
101001110
100100001100
111000010
10100110011
10111001100
10011110000
10011110001
1111111010100100
10001110101
1010001
1111111110000110
1000100010
1111101111000000
1111101001000000
1111100011111100
1111111001011111
1111110101100100
1111110100001011
1111110101001010
101100101
100011011110
100110111100
11001010111
111110
1110100011
1111111110010001
1111111110010110
10001110
11110101100
110100100011
10011100001
1100001101
100000100101
1110010101
1001101110
100011010
1000101101
1111111011000010
1111111011001011
1111101110110101
1111101110000111
1111110111101101
1111111110100001
1111111110100100
1111110110010101
1111101100010000
1100110000
1100100001
100010011
1111111011101111
101001001110
11011100101
1111010011
10110110
1111111011001100
1001010
1111100000100011
11001010000
110010111111
1110111100
1001000
11010
100101101
1110001
1101001001
110111010
1001101001
11001111
1101001110
1111110101110001
1110101
11100111
1010
1111110011000000
10011101
1111100001101110
11101100100
111000010101
110111110110
100010010100
10000001001
1011011
100010011
1111111011111100
10000010111
1111101101101101
1011101001
10110110000
101111101
10100001010
101010011110
11011101
100101010000
110010111101
11000010101
11101100001
10010110111
1111111000100111
1111110100100111
1111110101010110
111100010
1111110001110011
110011
1111111101100101
1111111110000111
10011000
101010000011
10111110011
10101010
100110111
10100100
1110
1111111001001010
11111000
110110110000
1111110111110011
100011010
1111101000100100
1111111110101100
11101111
11100011100
10011001101
10101101110
10000101001
10111100010
1101001010
10100110010
1111001000
1110001100
1001001011
1111110010000110
101111
1111100100101101
1111010111110110
1111111101110111
1111000000111110
1111011011100100
11
11011001
10011110
1111101
1111110111000101
1000010100011
1001100110
1111110001111001
111011100
100110100010
110011010011
101011101111
110101000000
1000010000111
1010001001100
1100000110000
111000011100
1011000011111
1001101101001
110011111011
11110100000
1001110111
1000101011
1111110011111000
1111101001000000
1111110111000100
1111111111
1011010011
11010
100010
11101110
1111111011100011
10001001110
101111100001
10101110100
1101011000
1111000111
10100100011
111100010001
1101100111010
1100101110110
1011001000000
1010000011110
1011110101110
1100101111001
1011010111101
1001001010111
1001100110111
1000100100111
1100000000000
1000001110011
101000010011
10101011011
1111100010101010
1001000
10111100
1111111101011100
100011010
1111111011111001
1100101
1010110
1111111010011110
1111110011000110
10110000001
10111011100
100000001110
100000011101
110001001100
1001000011100
111010110010
111111110101
111110011000
101011010001
101000110011
101100000010
100000000001
10010011000
1111110111001010
1111111001000100
1111110011101010
110111
1000101
1111111111100101
1111111010100001
1111111110111000
