111100
100010001
10110111
1111111010100101
101011100
1111111101011000
100111110
1111111110110110
100101110
1111111100000011
1100110
10101100
1110010
1001101011
110001000
1111111110111011
11010100
1111111011111010
1111111100010111
1111111110110100
1111111111101010
11100010
11011110
101000001
1111111110111001
1010100
1000000
100011110
100101011
1111111010101011
11000101
1111111010111111
1111111111010000
11000110
10110100110
10000000110
1111000
1111110010011101
1111111011000001
1111110000001101
101100110
110000001
1111011001100000
1011100011
111000011110
1000110011111
10010111001
11011111111
1010011010
10010010001
10101001101
10001110000
1111111111110100
1111111101100101
101000001
100111101
11011101
100000110
1000000
100110011110
101000101010
1011111101
100010011
101101110
1111001001000001
1111011101110011
1000011010110
1000011110111
100111001
11001111000
1110111110
11110100001
101000011101
1000001001110
110110110110
10010010101
1101100
1111111100010101
1111111110101110
101011000111
100011110111
101101110
101
1011101
1111111010100101
1111111111010011
1111110101101111
100010101001
101011001111
1111111011010100
110110010100
10001000111
1011010110
10100010
10000010101
11001010001
11101000101
110100010100
1001010111101
101010011001
100011001010
111101101011
100100101
1111000000010000
1111011100010101
1111101100100010
1111110101110111
1111010101000100
1111100101000001
1111110100110111
1111101011000100
1111111111011001
10011001
1111111110001101
1001001000
1111110101110101
1111110000111101
1110101100
101010110111
1111111101110101
1111111011001000
100100010100
100110010011
1111011111011000
1111111000100110
10001010101
1000100101000
1001000101101
101100010101
1000011100100
1000101001011
11101010101
11000010001
11101010000
101111100101
1111101100100011
101111101
1011100111
1000110100
1111110010000001
1111111100001110
1111111100010000
100101010111
10111100001
1111110101011010
1111001101110001
1111011001101110
1111011000100000
1111001001000000
1111110100000010
1111110111011111
11011011
1111101011101011
1111110011101000
1111110101101101
11000
111101001
1111110111100010
101100011110
1000001010111
110111000011
1010100001001
1010011011010
1000000011111
101010100011
110001011110
11001010100
1111101101111110
1111111100101000
1001000111
111101
1111101001110001
1111110010000011
1111011100110110
1111010101110011
1111011101111110
1111101011001001
1111110000110101
1111100101101010
1111101110110111
1111111101011111
1111011011001100
1111100100101001
1111111101010110
11010110
1111100100110100
1111110000010000
1111110111001111
1111111110100000
1111111001100011
1111111101010010
1111111101011100
101011000010
111101001001
11000111010
1111110110000010
1111110100111100
1111100001001101
1111110011100001
1111010110100100
1111110100101101
1111011010111011
1111100110110011
1111110011000000
1111111100001101
1111111100001000
1111101100011001
1111111111010100
1111111101000101
1111110011111011
110001111
1111110110001110
1111011000010000
1111010000010010
1111111011010001
1111100111011001
1111011011000101
1111010101111001
11100010
1111111101001000
1111110000111010
110000110111
1111111000110100
1111011000
100010101110
1111111011000010
1010111110
1111110111111100
1100000001
1111100011000100
1111110001111001
1111011110111100
1111010111010100
1111100100100111
1111101001011010
1111110000000100
1111110011010110
1111101011010010
1111101110111101
1111101101100110
1111100100110011
1111110010100001
1111110001000010
1111110110001001
1111011111110101
1111011011000011
1111110100011111
101100100
10011
1000111011
1011001001
100001100011
1111111001110101
1111110101000100
11011110101
1101101000
1010011110
1100100100
1111101101010111
1111100100011000
1111101101100101
1111111110000111
1111101111011100
1111110010011001
1111101100010000
1111101101111111
1111110001110010
1001010101
110110000
1111101110100010
1111110011010011
1111101000110010
1111100110001110
1111101011010101
1111100101001011
1100011110
1010100011
1000001001
111100010000
1111101111000000
1111111110110101
1101111010
1111010
100100001111
1111111000010110
11010110
1111111110101110
1111101110110101
11100001
101111011
10111100100
11000010001
10010
1111111110010110
1010110000
1010010100
1111101011100101
1111110000010001
1111111111001111
1111101011000011
1111101111100110
1111101101111110
1111111101100110
11010000000
100100101111
1111100001010001
111110010111
10011000110
1111101110001001
11000101000
1111010011001000
1111111111111110
1001101000
10101001000
111100011
1111111010100011
1111111111100000
10001111011
101110101
11000110110
10000100110
111111000
1011101101
1111110011100000
1111011100001111
1111101111100111
1110110110
1111111011101110
1111101100101000
1111111111010001
1111110101101010
110110110
100010110011
1111101101101111
110011111110
10110010001
1111101010110010
1111110011111010
1111000100011001
1111011111000000
100100111111
10100010111
1111101100000001
1111110000100011
1111111101111001
10011010111
11101011110
110010001000
101100010111
111110000100
11001010111
1111010010001101
1111010111010000
10001000100
10011100010
1111111100101111
100100001
1111110100011001
111001011
101010010110
1001100101011
10010100111
101011100011
1111101111110000
10110110000
1111110111010001
1111101111101101
1111111010111001
1111110110101001
110000111
1111101100000110
1111011100001000
1111101111001110
11110
101111001010
1011001111110
1001110101000
1000100101101
100111011010
1111100011100001
1111101101010010
11101000000
10001000010
11001111100
1110111111
1111110100001010
110010001100
111100100000
1010011010101
11000000100
11001010
1111011010
1111111001001111
1111100010011011
111110111
1111111001011000
1111111001001000
10011001100
1111101011001001
1111011010100010
1111111110000000
100001011110
1001110111101
1100110000110
111101001101
1001000001000
10001010101
1111101111100111
1111111101011111
100001010
10010101101
1001001001
1001010100
1000111110
101000111000
101100000100
111001000011
1111110001101111
11001001
1011000010
1111111000010000
1111111101100001
101111010000
1111110000100110
10111001001
111100
1111000011011001
1111101100000011
100000110010
1000011011010
1010001100111
1010110101001
1001110001000
1000001000110
1010001001
1111101011011001
1111111100110100
1111111101111110
1111111111011000
1110010000
111000001
10100100
1010101111
11001100111
100001011011
1010111001
110111001
1011100111
1111111110000100
11011100000
100110111011
11111011101
1111000001
1111111001100001
1111011010110000
1111011110011010
11000101
11001011101
101010101000
101100001010
11110111010
11111111
1111101000001111
1111110010110001
1111111001110111
110101000
1101010110
10011010101
1111111011001110
10001101111
11011011101
101110000001
100110011010
1101011011
100000
11100110001
10110011
1100110110
1110000010
111010010001
100100110101
1110011001
1111111011001111
1111100010100011
1111100101111110
10100101000
11110110110
10011101101
100011
1111101010111001
1111100101001000
1111110110110100
1011110001
10000010010
1111110110100010
1111111110111011
101010111
10001010011
10010100
1111111011101001
1111110010000100
1111011110011100
1111111001101111
100010001001
1111011101010000
1010011111
100011
100000101100
100001000011
101011111100
11010000101
1111111011000100
1111101110100111
1111111111110010
1011011001
10111100111
10101010000
1111110010001101
1111101111011111
111010111
10111001111
1000010010
1111101110101110
1111101010011000
1111101010000110
1111011010011110
1111101100111000
10110111001
111100101
1111111001110100
1111011001110101
11010000010
10010101010
1111011111001011
1001010011
10110100100
1111111100000011
11010110010
1000011110
110101
1111111001110011
1111110010011011
1111100110111010
1111011100100011
1111100111011011
10
1111111101000010
11110101000
100011100101
10100010110
1111111000101011
1111101001110100
1111111001000001
1111110110100111
1111111111101100
101000000010
1111111000010100
1111101101000111
1000011100000
1111110000111101
1111111101111001
1010100
11111110011
100010011110
101000101100
101010011011
10111100001
1111111110101111
1100111110
1111111010110001
10001110
1111110000000111
1111100110011101
1111111010111001
11110111111
111101001111
111101111011
101110000010
100110100101
100011110010
101100111011
11110110110
10101111110
11011001011
1111111000001001
1111101010100111
1000111110101
10100000
111111001
1100010100
1001111001
1111111100101011
10101011001
10100100110
111000
111111101
10111011111
11110110010
100100100100
1100001100
1111111001000101
10010101111
100011111011
1000100101011
110001010001
111100100001
110100001101
110110010010
11001111101
1111110110111101
100111010001
111110110001
1111110110100010
110100
101010000001
1111111100010010
111011011
1011010011
1110011111
1111010010
1111101111101101
1111101100000010
1111101111011010
101000001
1111000011
11100011110
100100111010
100010000001
1111011010
10001100010
1110000111
100100000100
101011010000
111011010010
101100011110
100110111011
1111110000001101
1111101101110010
111111001
101010101010
1111111001000111
1111011111011010
1000010111
1010110
1111111100010100
1111111011110001
111110110001
11000110001
100101111
10100110000
1011011010
1001011011
10001111101
1111000010
1010001001
10110110110
11011011110
10101000011
11111011010
101011011010
110100110011
111100110000
1001101001000
110111000100
11100101
1111011101101010
1111110100001001
11101011000
1111110010100000
1111111110110100
1111110101101000
1000
11010101
1111111110000101
1111101010101111
10011110010
1111111101010010
1011001010
11100111001
11011010
10000100
1100100101
1000111
111100101
10001001110
10011011000
1101100111
10000100010
10001101011
10110110000
1010000110001
100100101110
1111100010
1111111010110001
100101101
1111110110011101
1111110001110100
110100000000
1111111011010000
101011100
1111111010101100
1111111011011101
1111111000110010
1111010100101110
1010101001
1111111100101111
1111111001011001
1111110100111010
1100011
1111111101001101
1111110110111010
1111011011011111
1101000001
11100111101
10011101
1111101110011101
1111100101111100
11101011101
1000101010110
100100110000
1111111100010110
1111101110001000
1111101001101101
11010100011
1111111111110001
1000101111
10001111111
1111111011010001
1111111011011111
1111111011000010
1111111011101101
1111110010101011
1111111101010000
1111110111000010
1111000011000110
1111001011100010
1111100000000001
1111010101111111
1000000
1111110111110111
11101011001
1100100110
1111110000011111
1111111001011011
1111100100000000
1111101101101000
1111101001010100
1111110000000010
1111011001110100
1111000110010000
1111010001010100
1111101001001001
11100011001
1111111111101101
10000101
1111111100010100
1111111101011110
1111111101100001
1111111101110101
1111111100000000
1111111010110111
1111110010100100
1001110
1111111111100000
1111110100001000
1111001111010101
1111000011101001
1111010011001110
1111101110010010
1110101110011100
1110111010011100
1111000111010100
1110100101001000
1110001101001000
1110100111110111
1110110000011110
1111101000100010
1111101010111101
1111111100110101
1111110011111000
1111111100011010
100000001
1111111011111111
1111111010111011
