1111111101100111
100011111
1111111101110101
1111111101000110
1111111101110100
1111111101011000
1111111010100100
1111111110000111
10111010
100100000
1101110
100
1111101110010110
1111101011110011
1000111110
101011101
1111111110000000
100100011
100100000
1100000
1010101
1000100
1111110
100011100
1111111110111101
1111111111011111
1111111010100111
1111111100111000
10010100
1111111111111010
1111111100011011
1011001
10110010110
11001000100
100111100111
101110111010
10011011000
10100100000
11011010101
101001001111
1000110010111
10001111000
1111110110101101
1000101000110
1000011000011
110010000101
10110010110
11011011010
111011000001
11011001000
11011000110
10111111100
100000000
1111111101111101
101001100
100100001
1111111011110110
1111111100010111
10000010001
11101100111
100010111011
10100000010
101110011011
101111010000
10110110110
10001111001
101111011101
10011010010
101101110101
1111110110000001
1111111101000111
1001000
1100100000
101111011
10010100111
10001011001
100111000
1001001110010
101101000010
110010001000
111001101111
10111011
1111111101010111
1111111100000010
11111011
100101001
1000010011
100011011101
10001011
100010000011
111011101001
1001000110000
1011111001101
1011010110101
1001011000000
1000100011100
1100000110011
1100011101111
11100001001
10000010110
1010101
101100
1111110011001110
1111100000110100
1111100011111011
1111101111001111
1111111011111110
10011111001
111010011001
111001011
1111101111100000
100100000
100100000
1111111100000100
10001011000
1111111100111100
1111101000111000
1111111010101010
1111000011
1000110100
10110010
1111111111010100
110111111
1000110100
1001011000
10000010001
1110000111
1111110111000111
1111111111101111
1011111110
1111111101000011
110100010
1011101000
1111110111101110
1111111101110010
1111101100110001
1111101010101000
1111110011000111
10111011
10010001110
1111111010110101
101001101
100110011000
111100100
1100001111
10110000000
1111001100
101010010110
1111101010010010
1111101101010100
1111101101011101
1111100010111000
1111101011001111
1011011
10001111011
100010010010
110001110011
100111001001
11100011100
100011001110
1111111100101111
1100101000
1111111001111010
1111110111010010
1111101010000010
1111101100101101
1111111001111010
1111101101011100
100101111
1001101101
1111101111111110
111011001101
1001010010
11110001000
10100100001
10001000110
101111101
1111101001100110
1111011101100010
1111100010011010
10100001
110000
11110
10010100101
100101100
1111111001111000
1111101111010000
1111101101011001
1111110101100000
1111111011000001
1111111010101111
1111100111000001
1111011000110010
1111100110000010
1111010011110110
1111110010000110
1111111110100010
11101100101
1111110
110111101011
10110101010
10111000100
10111011011
110100010
1111111000001011
1111100110100111
1111100110001001
1111111010011101
1000001111
1111111110010001
101111111
1111110111100010
1111110010001110
1111101001101001
1111011010110101
1111101110001100
1111101110011110
1111100001000101
1111110100111110
1111110010100110
1001010000
1111111000111111
1111010111100100
110100010
11110101011
110011010000
11010110001
1111111101101001
1111111110011000
1111100111001101
1111111010001101
1111101100001101
1111110000101011
1111101111010010
1100001101
101100000
1111011000
10000010011
100100011
1000110
1111101101101111
1111100010001110
1111100001011011
1111110000000110
1111110101001110
1111110110000100
101100000
11100001110
1111111010001110
1111100100001110
1111110100010001
111011
111001100
101001101111
1111
10101011011
101000000001
1101100110
1111110111001100
1111101110001011
1111101111011111
1111111110000110
1111110101010010
1111111111100001
100100011010
110110100001
111100110100
10011101001
1111111101000110
1111110010010010
1100100
11010000010
10011111
1111111101111011
10010001101
1100010001
11110100100
10011001001
110110101010
1111101010111111
1011101000
11111100010
100000011110
11010010
110101101
1010100000
1111110000000001
1111101100000000
1111101010001001
1111011001111111
1111011000110010
11010010
101011000001
1010011110100
1010010111001
1000010100101
110010111101
11110010111
1010110010
10001000001
11001101111
10010110110
1011100111
10111000111
11010111011
1111101111011001
101111000010
10101011100
100111
101010111110
1111001111010110
100111111100
1111111110100011
1111101111111110
111001110
1111011011110110
1111011010110011
1111010011000000
1110111011000010
1111010011111011
1101001000
100101110110
101110111101
101011000100
11000101000
1111111010100110
1111111101110110
10101100111
10111010100
1000010000
1111111100001000
10110101111
100010101111
1100101100
1111111100011101
1111111011100000
1111111001100001
101101010101
1111011000000111
110011000
1111011110010011
1111101011000011
1111111000001011
1111100111010100
1111011111011111
1111010010010101
1111001111111010
1111011001110111
1010101
100011110101
111011010111
11111101110
10100100010
1111110000110001
1111111000000110
1111111100000110
1111111100111011
1111111101110001
1111110100111101
1111101100011011
101100101011
100110011000
110010001010
10110101110
1111111111000101
110100011
111011100
100110011
1111001001011001
1111100001011100
1111110010101111
1111010110101111
1111011110000110
1111100011100001
1111010100110000
1111110110101001
1111111011011010
11101001100
100111000100
1100101010
1111110010100010
1111111001000010
1111101111100010
1000111111
11001100
1111111100000011
1111100100111110
1110111
10111111011
1101001000
101000101011
10001111100
1111101001011100
1111110000111110
1111110000100010
1111011000000111
1110111011111111
1101111
1111110101111001
1111101101000110
1111110101001101
1111101111010101
1111110010010100
10011
10011101
11010000000
100011001100
11111010111
1111111000110011
1111100111101111
1111111101110101
1111111111101101
111000011
1111111011001000
1111101111000011
1111100110101010
1111111111000000
1111110101011110
101101011100
101000100111
1111110000101001
1111110110111100
1111100101101110
1111101100111001
1111110000000110
100101000110
10010110010
1111111011111010
1111110101001011
1111100111010100
1111101101011011
1111101010101111
1111110110111010
10000010110
11001001100
10000110000
1111100100111011
1111011011110100
1111110110010101
1111110000011001
110010101
1111111101101100
110001011
1111101100001100
1111110110101100
1111100100110000
1001011001
10100001000
10001011100
1100111010
1111110101101100
10110110111
110110001
11000000000
1110011
0
100010
1111111110001100
1111111111010010
11010110
11111111
10100100100
11010101110
1011101011
1111110011000011
1111101000101001
1111110001010110
1111111111011001
1111111001011001
1111111101110100
1011001110
1111111110001001
1110001101
1111110011110111
10000001010
100001101011
1111111100001000
11101011
1010001
10010100001
100111001
1111111001011110
1110011011
1111111111110100
1111110110111110
1111110010100010
1111110101011101
10111001
1110000101
1111110111
1110010100
1111110100000101
1111101110101001
1111111000011111
1111101100010010
1111111110111011
1010111011
1111111111111101
100011000
1111101011010111
1111111010111000
1111110110110001
1111111001101000
110110010111
1111110111001111
10110100110
1111110011010011
1111111000111010
1111111011001100
1111110000000010
1111111110011000
1110101001
10110000000
1111010011
1111111001101111
1111111010010101
10010111101
10110100110
100110000
1111101111111011
1111111100000100
1111111111110000
10101010011
10111101
101100111
111010001
11001000111
10110001111
1110100111
1101100010
1111110001111101
11110010001
1111111000101011
11011011010
11110101
110
1111111010011110
1111110011000010
1010010011
10100010100
1111101101001010
1001001000
10001100110
10001010001
1101100111
1111111111
1111111001011001
1111111100100101
1001011000
101101001110
1111011100
1111111100001010
110001011
11001
1111101010
1111100010011110
1111110001110111
1111101110001000
111110100100
10101110011
1010010
111
11101011
1110001010
1101101010
1111100000
1111100011
1111110100
1111100100010011
1111000011
10001111001
10000011010
1110011100
1110001010
1110000010
1001000010
111100110
110100111
11001010110
1101011110
10010001110
1111111101111101
1111101110110101
1111010011000111
1111110100011011
1111100101001011
1001011101101
100010000
1111111110010000
1001101101
10010101000
1111101111100110
1010100
1001110010
1111110110000011
1111100100100000
1111010011000001
1111110101010110
100011011111
100000101001
1100111001
11101001101
10011001111
10011000100
10101011000
10011101
1110101000
111110011
1111101100100010
1111001100101111
1111100000001101
1111100010000111
1111110001000000
1111110101011111
101100111101
1000011101
1100001
1111111101000101
111111000001
1111101010011111
1111100010110001
11101001000
10111100011
1111111110101011
1111110011101101
1111111101101110
11100001011
100000111101
101011011111
11101010001
10001110100
101110001110
1100110001
1111111011011111
1111101101011001
1111110110110011
1111100101010110
1111101100000001
1111100011100111
1111011110010011
1111101001001010
1111110101011011
11000111
10000001101
1111111111110110
1111111101100010
1001110000
1111101011101000
1111011111001010
1111111000110000
101011010
111110111
1111110011100011
1101101000
1100000001
100010110110
11010101101
11010011010
100001001
1010110011
1111110101100001
1111110000010010
1111100110100101
1111100000101111
1111111100010000
1111011111100010
1111110000011001
1111110111100000
110011010
101011000110
1111110001100000
0
11111111
10100011
1111110001100011
1101101001
1111011111010100
1111101010100111
1011000111
1111110010011001
1111100101100001
1111100110001110
1111111100100000
1111111011100100
11010101
110111011
11001111101
11010110
10110110
1111110011110111
1111010011110100
1111001001101100
1111011101000011
1000101
1111110000
1111100111110100
10101110110
111011101110
10011001
1011111
101000110
101001111
1111100110100111
1111111100000101
1111101111001011
1111110001010101
1111101100001010
1111100001
1110110
1111111111111101
1111110010001001
1111110110101111
1111111110111101
1111101101111100
1111111101001011
11000
1111111000011101
1111000101110111
1111011011001000
1111010010100100
1111011001101010
1110111111011110
1111000111100010
1111101010100010
1111110100010000
1111111101101101
1011011001
1111111100101100
11110111
1100100
1111111010100011
1111101000100001
1111001001011001
1111010010001001
1111001011110100
1111010001010000
1111001111001010
1111010011010011
1111101000100110
1111011111111001
1111011101100011
1111100101111001
1111010010011101
1111101010001001
1111110001100001
1111010001001000
1111110101010111
100110100
1111010011111100
1110110101100000
1111101100111111
1111101000110100
1111100000010101
1110101111
1111111100010000
1111111110101110
10000101
100111010
11110011
1111111110111000
1100111010
11010001100
1111110001111001
1111110111011001
1111111101100100
1111111110111111
1111111101110010
1111100001110001
1111101011101101
111001100110
10100001
1111110010111100
1111111100011001
1101101011
10011011010
1111111110110100
1111011100010110
1111011111111100
1111110000111010
10110001111
1111111011010101
1111111101111101
11011010
100110010
