10000111001
1110101011000000
1101010
111000110011
1110001110111011
1110101110001101
1110100101101110
110010001010
1110111111100110
1110101011101010
1110110100111010
100001010100
100000100000
100111110001
100110110110
101000111000
1111100100110010
1111010100010100
10001101010
11100111010
100110111
1101000111
100100000011
1111111111
100101110111
1111100111110111
1111110010100011
1111100000100101
11111101000
1111111101000001
