1111100011011001
110101100010
1111110000001110
1111100110111010
1111000101100
1001011011001
1110111000000100
1111100111001111
1111010000110100
101100111101
100101011
1111010011100001
1111101001111000
111001111
1110001001100100
1110010010100011
1111111111101101
101001
1110101110100100
1101010001
110111000110
100111000111
1111011100011110
1111011100101100
1111010010001100
101010110101
101101111101
1111011010011101
1000001001
1010111011
