100110011001
1111100000100010
100101011101
1001111011100
1110110101000111
1111010110001111
1110001000110110
100011001001
1110001010101110
1101110110110010
1110100101010011
11011011100
101010111001
100010100111
110110000001
10011101010
110101010111
1111011011101110
1111110001010000
100011100010
100110001111
100010101010
10111100110
1010001001
1101110101
1111100101010100
1111100000111010
1111010010101100
10001010000
1111100111000000
