111011111
11011000011
1111010110001011
11011010010
1111001111001010
1001100001111
1111110101010001
101111111011
1110011011100
1000101000010
111010101111
1111010100101000
1111111001010101
1110111110111001
1000010111
100010001001
1111011101111000
1111000101010111
1111101011010000
1111010100101101
1111010000110100
100101111010
1111110000111100
1111001101101000
11101100100
1011010010
11001110101
101100000100
10101100
101110011000
