1111000111001111
1111100011000001
100100010110
1110100101100000
1111110100011100
1111100000100100
1111111110010111
1011000111
1101101101101101
1111101000110100
1110011101010011
1101100001
100101111010
110010110110
110111111000
1010011111001
1111010000011001
1111110010100111
10111110110
101100000001
1111111111100111
111100001000
10111101000
10101101011
1111101111100000
1111111011010001
1110101010100010
1111010101110111
1000010000010
1111011111010011
