110001100011
1110110100000100
101001111111
1011100110100
1111010101010110
1110111010000101
110101010111
11011010010
1111100110001010
1101111010110011
1111001101001010
100000
1111010111100000
11001100110
110100111101
1011000001
1111010001111001
1111001001111100
1111010111111010
1111100100100010
1111111101110100
1100011101101
100001011
1111101100011011
1001001010100
1110000110010101
100111010101
110110000
1010010001
1001100000001
