1111001111100001
1111111001111110
10011101110
1111010100101110
1110010000100000
1111111100011001
10001101110
100111001001
100001100010
1110111010001101
1111111000001001
10011110110
1111101110010001
1101110010
1000000011001
10010001011000
1111100110000010
1111100001101100
1111011011101
101101111101
1110100000101000
1101001
11100101010
11000110100
10010100100
1110110001001101
1110000100010110
101100110011
100100101011
1111111010101110
