1111111100100010
1010011101000
1110101111111011
1101011010000111
1111010101011100
11100101111
1101111110101000
110011011100
1111111000100001
1111110000001111
1010101000110
1111111101100001
10100000001
1111000110001111
1111100000001111
1110110101000111
101010110101
1111010101101001
1111011011110111
1110111101101100
1111100000100101
1111011000100000
1010111
1111110111101101
10110000
1011100110
1111101100010111
1011000011011
1111011010010110
1111110011101011
