10011101101
1111001111110111
1111100110011100
111101010000
1111100101111011
1110111110110111
1001010010000
101001111001
1111111011010000
1110011011001110
111011100011
1111111100111011
1111001100010110
1111110101011110
1100000100
11111101
1111010110001011
1111001010011000
1110010000011100
1101110100110111
1110111100000011
1111110110100011
1111111100001101
1010110101
110010010100
1110101110110011
10011000001
10011100110
11011011
1001011001011
