101110011
11011110110
1110101111
1111000110001001
1111001000
10011011101
1110000011010010
1111000110010110
100010000
100001011110
101001101
101010110110
110101011001
101000010101
11100000000
1111001110000010
1110100010011
1011000010101
1010000000111
111010000110
110010000010
1110100011111111
1111110110001100
110
1110111011000000
1010001101000
111100011
11011111101
1111110011011100
1110100111010000
