1011110000
1110110000000010
100110100000
1110011001100
1000100001100
1111110011111101
10101010000001
1111111011101111
10111000011
1111101111110001
1111001100010110
1111011010101101
1111000111100111
10100110000
1111111010111111
100111111101
1110100010011010
1111111111101100
1111001111101011
1100100001
10001010011
1110101011110
1111110001100101
1011110101
100001111011
1111000001011101
101001001000
1111010000011100
10111111100
1001010100001
