100001000110
1111001110011010
100101110
1111010101011011
1110010011000000
1110100011111000
1110100110000110
110110101
1110101000000101
1101110111010101
1111010110001011
101110111000
1110110100
100111100110
1010011100101
110011100100
110010111
1111011101001100
10010001000
1100010001
1111000111000101
1111001100001010
10010100100
101100001111
11010100011
1111010000000101
1111010111101110
1111101011010101
1111101011100101
1111101111111111
