1100001110
101001100101
1111000010110111
1010110101101
1111010110100010
11101111100
1111000110000001
100000011101
100111100111
1110110101011111
1001101110010
1111101101100111
1111111110000011
1111111010010010
1111001101111110
1110010110111010
101011100101
1111011111111111
1110101000000100
1110110111111011
101110
1111100110111010
1111011101111011
1111010011101011
101010000111
101011000
110111101011
10110000110
1111001110001111
1010111110
