1110111111000110
11001011011
11000110
1111100011000000
110000001001
1100111000010
1111101110110001
1111100010010001
1111100101011011
1110101011011
1111001011010010
1000
101111100001
11011001111
1111111101100110
1011010010001
1111111100111011
110010001110
1101111000101
10000011101000
101011111100
1010010011101
1111110111001000
110111000
1111011101001010
10001101101111
1110111111100111
1111010000101000
1000010110
1111001000010101
