1111110011000001
110010101101
1111011000100100
1111100101010110
101001010
10000000100011
1111001101111100
101001111111
1111010010011111
1001101010011
1111101001100110
1111000001110110
10101111
1111110011010110
1111010110010000
111111001
1110110001001010
1110011000000000
1111100010001010
1001100110010
111101011
1011010110001
1110111110111011
1110110111101010
11001100000
10110101110
100100010100
111010011001
1111111100010110
100100011110
