1110110100011000
110101000011
1111111000001001
1110011000010011
101100001
1011111
1111000101111010
1100000001
1111010101110010
1111100101000111
101000011011
101110101111
110111101100
10001001001
1111101011110100
110100100001
101010001110
1111110011010000
110110
11101011111
1111000111101111
1110011011000100
1110010
101111100000
1110111100111101
111101011011
1110100011000101
1111101001010101
1100010
1111010110011011
