100011101100
1111001011000010
1111110000100101
11000110
1110111001111011
1111100000010110
1001111110010
100010101100
1111111110000100
1111000000110010
11001011011
1111111101101010
1111000101101110
1111110011110001
1011101001010
1000000101100
1111100101000100
1111101110111110
111001111110
1111010010101001
1111000110000001
1111010100110001
10111101010
111011010010
1110101011
1110110111101111
1111011111101111
1010110110
1111110101101101
11111100
