1111011011010010
1111000011001111
1111110111010010
1011111010101
1111101110101110
1110111001101111
11001010100111
1111110001110010
10100001100010
11000011011
1001110010011
11101101
1110110000000110
1111100000100000
110000000110
1111110011100100
100000111111
10100100111
11010001100
1111001110011111
1111000010001111
1110101110000000
100000011011
10111110001
1111100001000110
1110111001011111
1111010111110011
1111100000111101
1111101111010001
11011010001
