1111111110010010
111001000000
1110111110001010
1111001111010001
1111100110101110
11111101
101001011101
1101111
10011100110011
100000001000
1110000011010
1111111010010000
1111110110110001
1111000011010100
10100101001
1111100110110010
1111111010010110
1111101100100001
1111110101101011
1110101001101000
1111001001100110
1111001101110110
1111110100111110
1111100000101011
1010011010
11111101
100101110111
101100001011
1111000011100111
1011101010
