101110010101
1111110001000111
111100010
1110101000000001
1110001100011100
1110110010010100
1101111110101111
11101010011
1111000011000011
1110100100100111
1111010010000100
110000101011
11110011100
10101111111
110111101000
1000000001101
1111101101110011
1111100110110101
1011110111010
11000110
1111001110111000
1111110011101111
101001011100
100011101011
1111111000
1110101110001101
1110111010000000
11111110101
1100100001
1111011100100000
