1001010011
1101100011010
1111100110000000
1101111000000101
11100111000
1111110101001000
1110000000111101
10101110001
111001111
1111100001010011
1101110001111
10001110110
1111100101100111
1111100010000010
1111100000001100
1110110011101100
111001010110
1011111111
1110110110011001
1110110010000110
1111010110100011
1110101011001100
1111111101111110
1111011111010011
1111011000011110
10101111
1111111001010000
110110011010
1111001010011110
1111110111110110
