100000010100
1111000100000001
1111110000111111
10110000110111
101110001110
1111001000011111
1100111001100
1111011101111110
111100110110
1111111010100101
1000010010
1111101110010100
1110101101111001
1111111101011000
1111101001100100
1110100111001010
1111101111111001
1110001010
1110100001011010
1110110101001010
101100101000
1111101000101110
111011111
1111101001000100
10100100111
1111101011110111
111110010110
1111100110001110
1100000001
110000111010
