1001010011111
1111100000
1011001000010
1111101111100001
100100000111
1111100111000100
1110111000110010
1110001110000100
1111111010000111
101100001010
1111001001101110
1111110001101111
1111110111100001
11000110111
101101100101
1111100001111111
110101100011
1011111000101
1010111100101
100000111000
1000010000111
1111011110011101
1100
101110001
1111000100001111
1111010100000110
1111110111110011
100011101001
11000010101
1110110001111000
