1111011010111001
1101000111
1111100010100110
1110111001100100
1111011100011101
1111011011111100
1011101100110
1010110010101
111011110010
1110110101001100
1010110111110
11101000001
1111101101011010
1111100111111010
1001100101
1111111110111011
100111001111
1111010101001110
1110111010001110
1110111101011110
1110001110010000
1111000110100100
11001111100
110011011110
1111111101011111
1111110011001101
1111010100110110
1001101011001
1111001111100010
101000011100
