1111000110110000
1001101000
11001100100
1111000010001001
111100100110
1001001011001
1111110000001110
1111100001011110
10100011001
1101100100011
1111100111110101
1101110100
100110101100
10001010001
1110010101
1010110100
100001101110
11101011100
1001100001000
1010100010011
100110110101
1111100010110100
100000000
100001101111
1110110100111011
1101110101010
1111100110011101
1111100101100101
11100101100
1110110111110100
