1100001100000
1111110101111100
111010110
110010001001
10101110000
1111101010100000
1111000110011000
1111001011101110
1111001000011110
11110101010
1111101100000110
1110110110010111
1111010100001010
1111111001101000
1111001101000100
1111000001110110
1110100000100000
1111001111001100
1110111101100010
1111110000000110
100010110011
1010001111011
1111010101011000
1111011000010110
100010110001
1111010100110000
111110100110
101110010
1101011100
111101000001
