11101110101
1001100110011
1111011010100000
1111110001111000
1110110010010011
1011100011011
1101111011001110
100001100
1111100101000001
10110010100
11000010111
10000000001
101100000001
1111101011001000
1000010111
1111010011111010
100010101001
1111101011001010
1100111001011
110001010110
1110101100
11010111101
1111101001110110
1111000110111110
1111111100010100
1111110111101110
10110110110
1000001010110
1111101101001110
1111101000110100
