1001011011100
1110000101
1111010010101100
1111010101011
1111101100100010
111000011
1100000101
1111110010010011
1001110111110
1111101111000000
1010000011011
1111111011010000
1111010111110111
1111001110000110
1111100111110100
1110101001010110
11001011110
1111101100010101
1110110011100100
1111010110111110
10000111011
1111101101001010
1111101111110000
1111010011111011
1010110
1111110011111000
1001000001010
111001101101
1111100011110011
110111110101
