11000101101
1111011101001110
10000101101
11011110011
1111101111001011
1110011110100000
1001100000100
1111011000111111
110010101101
1110111001110001
110011000100
11110111011
1110101010011010
1111111000011111
1001011101101
1111010101110110
11100011111
1000001001101
100000110
1110110110111010
1111100101101000
1111011011011100
10010101000
111001011100
101000110
1110110000010101
1111110100110010
1100011001
1111101110010011
100101001
