1111101010001010
1000001110
1111110100101101
111101111111
10110000100
1100101001111
1110110001110001
1111100011000110
1111010101110100
1000000111010
1111001110100000
10000110010
100010110100
1000001011
1110100100101100
1110101100111111
1000011100101
1111011010
1111010101001110
1000000111111
111111010010
1001001101
1111100001111100
1111010010010110
1111000000011100
10000001110100
10011101111
1111101110100101
1001000001
1111100110011101
