10011001001
1000101010
100010100100
1110110110101110
1101001111101
10100011111
1111101101110010
1101111010100000
1111001100111100
1111011011100000
1110100100000001
1111010111001001
11100011011
11001101000
1101111010
10010101000
1111100010111001
1100101111000
1010111100100
1101111000101011
1101000100100
10010111100000
1110100100111101
111010101110
1111100001001011
1110110011011111
100100011011
10011000111010
101010100001
11011010011
