1111101110000011
1010101100000
1110001001111100
110000111
1001110011111
100011110010
1100001101011
10110001101
1100101010000
1111101110011100
111101011001
1111111111111111
1101101111001000
1110000111100011
10100001100
10000000010010
1110011000001
110111111000
1110000011101001
101110011011
1111101010110100
1111001011100111
100100011111
110
100111111
1110111101100011
1111101011111000
1111110111101111
1111101001100101
1111010011
