11010000011
1110110100101101
1111100110001000
1111010110111111
1111100010111111
1111000000000010
1110111001010110
1111101011111010
1111101000011
1110000010011
110000111011
1111101011001000
1111111000011011
111110100
1111000100110001
1101010110111100
1111100100101000
1001010011100
1111010001101001
1100110110101
1110100110101110
1111100110110000
110101011
1110010101011000
10001110100110
1111110110001110
10011010100
1111000100001000
1010100101100
1111100110010101
