1110111110011011
11011
1111110000000011
1000101011101
101010101000
1111111111111
111010100000
110011001011
1110000100011011
1111011111101101
1110001001101001
1110111111101000
101000110
1111011001001100
1111110001111
101101010011
100111011010
1000000101110
1001000
1110110000011101
1111011010001011
1111011000111011
100110100101
1110110111001
10000111100111
1110111100000111
1110101010101000
11000001100
10100000010101
1010001010110
