10010000001011
1111101100001110
1000110100110
1111011010010011
1110010111101111
100010111001
1110011110010111
1000010111000
1000111110101
1111000100011
100101111101
1000010111111
1111111011010001
1111101101111111
1111000101000111
1111010011101101
11110000111
1110100100010101
101011110111
1111110110100001
1001100111110
1110111011100001
11001101000
100000100000
1111111010101100
1000110101000
1100010101000
1111010011011111
1110111110011010
1101010010010101
