101110101000
11000101000110
1111011101101000
101000100000
1111010000010011
1111101011111010
1111001111100110
1011001011011
10000110000100
1111111100010010
10010001011
1111100011100
1110101110010000
1110001010
111001110
100101100000
10001011111001
1110011110010101
1111110
1000101100001
1011111101011
1110111101100011
1111101010010
101011011010
1110001111011000
1000100010
110000000111
1111011110001110
1110011011010110
1111101111001111
