1001000111
1110110001100010
1111001110
1110001001101000
1011010100011
1110000010111001
111100011111
1100000100010
1110111110111101
1111101111100000
1110100100101
1111101100110111
1000011011111
100000101111
1110111111010110
110101110010
1101011001111001
1001110110101
1100010011
1101011
1000100110
10011101001000
1110100011001000
1101100001101101
1011101011111
101000000111
1111000001000011
1111110110001010
10000110111
1001011100110
