1111100010100001
1001011000
1111111001001111
1101010001000
1110101111111111
1000100100110
10111001101111
1001010001010
1111100100100101
1111111100
1001110000011
10000011101000
10011111101
1110110110
1111001000111111
1111101011111001
1111101110011000
1110110101011000
1111000011000111
1100111111000
1110100100101100
1111100011011011
1100001110001
1111011110010001
1110100001110100
1001100111010
101010011010
1101111
1110101010000000
1010011010001
