1000100000100
10010011001
1011111111100
10110110100
1111110101111101
1110010111101011
1110101100110001
1111100000010001
1111001000111110
1111011001110001
100010001000
1111110111011100
1100010100110
10010011010000
1001001000
1010111000011
1111100001100010
1111001000001010
1010101010000
1111100010101111
1001011110111
111010000010
1111110011100100
1111110101011000
1110111001000001
1010011010001
1111011110100101
1111010000000110
1111011001010011
1001101
