101110110010
1111001010000111
1000001001001
1111101010111100
11101110010
110000010011
1111010010011001
1101000100111011
10110111110011
110101011101
1110101110010011
1111111010010001
11001101110
1111110001001101
1111100011011111
1110110001100101
10011101110
1001000010100
1100
1111000101100000
1000101001000
100100001011
1111001000100011
11010000
1011001
1110110001100101
1101110101010
10000111000110
1101000010010
100101001010
